#include "lenet_params.h"
const uint32_t NN_Lenet_Param_layers_conv1_weight_Size = 150;
const uint32_t NN_Lenet_Param_layers_conv1_weight_Data[] = {0x3c9151d5, 0x3eb2c09a, 0x3ef337b7, 0x3f156c68, 0x3eea88dd, 0x3ddf429f, 0x3e59c911, 0xba998df5, 0x3e7c55b0, 0x3e818876, 0x3e1657bd, 0xbe1f604f, 0xbd990ddd, 0xbee666ee, 0xbeb94de7, 0xbe7b4ca6, 0xbe240702, 0xbed2d150, 0xbee72ec1, 0xbda2d5b7, 0xbdfcbf2a, 0xbe1d122a, 0xbdc5decd, 0x3ce3d1e7, 0xbe075b47, 0x3e9818ef, 0x3e532bee, 0x3d2ddb70, 0x3b8f4c31, 0x3e6b6f2e, 0x3d41f8fa, 0xbd2094b4, 0xbda0ec1b, 0xbe54f850, 0x3c22c200, 0xbe0b1cfa, 0xbe4ea7be, 0xbe57c660, 0xbe710da6, 0xbdb5415c, 0xbe698496, 0xbdc76866, 0xbe4233fd, 0xbda15c42, 0xbb0027ae, 0xbd4b00e1, 0xbe53cf08, 0xbdafd29b, 0xbd48dfe4, 0x3da45914, 0xbecd3585, 0xbec550e8, 0xbf143b16, 0xbe833ff6, 0xbc7bd100, 0xbdf5ed5b, 0xbed3ab05, 0xbe533296, 0xbc9e7f77, 0x3bc304fa, 0xbca16edb, 0x3ce6b4eb, 0x3e4f28e2, 0x3e9ffca4, 0x3e44dc36, 0x3e72f936, 0x3eff656e, 0x3f1260f1, 0x3e75851e, 0xbcfe3598, 0x3e8f4861, 0x3de85d57, 0x3e0a7091, 0xbd908cb0, 0xbe92449c, 0x3debb4ef, 0x3e9705ab, 0x3d2c1aa1, 0xbedc2d95, 0xbe98e2aa, 0x3e23a4ab, 0x3ec1fc2f, 0xbe2643da, 0xbf0cd322, 0xbeb0498d, 0x3d514f9e, 0x3f003d89, 0xbd1e06a5, 0xbe01d04b, 0xbebbda6d, 0xbe5caadd, 0x3ed8f263, 0x3ef822be, 0x3dce4b6d, 0xbe7686e4, 0xbdca8b9e, 0xbde9edde, 0x3eac1025, 0x3ea15e14, 0x3e631a81, 0xbe5347f9, 0xbded9c75, 0x3e40f6e0, 0x3ec8b705, 0x3e3dd64c, 0xbe80e3a7, 0x3d7c09d9, 0x3e026cc5, 0x3e586694, 0x3ec9e286, 0xbdfa3d40, 0xbec2692a, 0xbcd922c3, 0x3ebf1315, 0x3e8dca21, 0xbea158ba, 0xbea6a999, 0xbe8f2aed, 0x3da4fcd4, 0x3e5904bd, 0xbe48e9e7, 0xbd9eee21, 0xbe3ec454, 0xbe27e40e, 0x3d094f51, 0x3e9dd09c, 0x3e42d5c1, 0x3cddbd1c, 0xbe27e31e, 0x3e2ae02d, 0x3e779eb5, 0xbd5d9910, 0xbe198f31, 0xbe1663a7, 0xbe738e54, 0x3ed49c71, 0x3e960798, 0xbe792b9e, 0xbe30b65e, 0x3e1e0cb5, 0x3ec0a285, 0x3e951708, 0xbe3ffa6b, 0x3df871c3, 0xbe1b5baf, 0x3e0dfbb0, 0x3e3cd956, 0x3cbb3fe7, 0xbe9b22b4, 0xbe881147};
const uint32_t NN_Lenet_Param_layers_conv1_bias_Size = 6;
const uint32_t NN_Lenet_Param_layers_conv1_bias_Data[] = {0xbb791898, 0xbe8eba2a, 0x3e8ad415, 0x3dbbe751, 0xbdbe438d, 0x3e66fda3};
const uint32_t NN_Lenet_Param_layers_conv2_weight_Size = 2400;
const uint32_t NN_Lenet_Param_layers_conv2_weight_Data[] = {0xbd4f8847, 0xbdf2f5dd, 0xbdc76384, 0xbd6d42db, 0x3b986623, 0xbc99c2cd, 0xbb8c5470, 0x3d2a5b8f, 0x3d874acb, 0x3dc43659, 0x3ddd0a54, 0x3c30d7dc, 0xbb3dcb36, 0x3e133fbc, 0x3e6a37de, 0xbd7ca273, 0xbe1cdb70, 0xbe5858fb, 0x3da69fe1, 0x3ea20546, 0x3bc18f43, 0xbe35b3f3, 0xbe74839e, 0xbeed1df6, 0xbe252add, 0xbcc20e2e, 0xbdf5738b, 0xbde7a4eb, 0xbe1a6a69, 0xbd3fd52f, 0x3d6e8cee, 0x3dc91846, 0x3e03e0ea, 0x3d68dd13, 0xbd07d073, 0x3d009173, 0x3d43a304, 0x3e37e9fa, 0x3e17f5d3, 0x3caf86f4, 0xbd44f73c, 0x3de95246, 0x3d962eda, 0x3df824c6, 0x3e5e69a8, 0xbcf43bf5, 0xbce39279, 0x36a7e400, 0xbe312701, 0x3c3a51db, 0x3d6154f3, 0xbdaa1b2c, 0xbe083588, 0x3d000a94, 0x3c15642c, 0xbe04b3dd, 0xbe9862e7, 0xbea90f2c, 0xbe410e16, 0x3b191770, 0xbd59ed55, 0xbe9f1de1, 0xbf06da9b, 0xbf14b036, 0xbd5ce319, 0x3e7d371a, 0x3e8f9042, 0x3db574e2, 0xbe1464db, 0xbe8e1265, 0x3e13624a, 0x3d93b4dd, 0x3e4666fb, 0x3e0b7d39, 0x3e2e4ecb, 0x3d80d753, 0x3d2aa933, 0xbd6feb11, 0x3d135a37, 0xbd0bfee1, 0x3d01f99d, 0xbe373488, 0xbd66b201, 0x3dd2daec, 0x3e6f4791, 0x3cc1e772, 0xbe25c5ac, 0xbe6b61c2, 0xbe4a2155, 0xbd622a8a, 0x3d930614, 0xbd317922, 0x3d63dcd0, 0xbec66aa2, 0xbebeed2e, 0x3cb8a162, 0x3de1ba25, 0x3e508c87, 0x3e7424b0, 0x3d254be7, 0x3d2adc8b, 0x3da4bb18, 0x3de714ec, 0x3d8519e1, 0xbe7105d1, 0x3d886017, 0x3d808460, 0x3e7656f6, 0x3e3f5c13, 0x3d6f3c44, 0xbdf74e67, 0xbb4c0ba4, 0x3e2b585e, 0x3ea4277c, 0x3e89e608, 0xbe9cc3a9, 0xbeeaa3c6, 0xbe179e2a, 0x3cac8331, 0x3da2994e, 0x3e266b96, 0x3d7911ab, 0x3d3485e8, 0xbd91e2aa, 0xbe904bc2, 0xbd5cf582, 0x3c127ad5, 0x3e1395fe, 0x3d1c1ef5, 0x3d8ed6a7, 0x3e0e31ec, 0xbc024f05, 0x3b628851, 0xbe21a9d8, 0x3e00164c, 0x3d22fe11, 0xbe770dd1, 0xbea69039, 0xbf0d6bc2, 0xbe3f68ab, 0xbd61df7b, 0xbdac0834, 0xbcc73a42, 0xbe87ad58, 0xbe8dc17b, 0x3c0ca1f1, 0x3c2a61c2, 0x3dbaf10b, 0x3d2ca728, 0x3ba448ee, 0x3e2e3d47, 0x3dde7f7a, 0xbe009aee, 0xbe475dc0, 0xbddb2b0c, 0xbe455396, 0xbdd86242, 0xbdff15d3, 0x3d8b4144, 0x3e88d6ec, 0xbda6351b, 0xbd304622, 0x3d913658, 0x3e58d77a, 0x3e245519, 0x3e7ba1b1, 0x3ea8428f, 0x3e5f4162, 0x3d87c6d6, 0xbc814c36, 0x3ddd96a1, 0xbc66375b, 0xbde5f13f, 0xbe637d29, 0xbec9e767, 0x3ca278ba, 0xbe0b9128, 0xbe361b9d, 0xbd80d610, 0xbde63248, 0xbd9114ab, 0xbe1dc2eb, 0xbe0411b4, 0xbd03a23c, 0x3da929d6, 0xbdac5e90, 0xbe28922a, 0xba455c78, 0x3e0c93e4, 0x3e41d735, 0x3d4684b5, 0x3e1bdfd9, 0x3cdf7361, 0x3d868be5, 0x3e1364bf, 0x3d7dd16b, 0x3d80dac9, 0x3cc5162f, 0x3dbd050f, 0x3d8fd913, 0x3d5cceb6, 0x3d0f64f9, 0xbd94a783, 0x3d98c002, 0x3c8c10fb, 0xbd8d0d1e, 0xbdef0358, 0x3d16c0a7, 0x3d867eb0, 0x3da362a3, 0xbbdb53c3, 0x3d4273ec, 0x3d66cae5, 0x3e121fd2, 0x3c2edbbf, 0xbe472adf, 0xbe74f072, 0xbeb4d286, 0xbed8df33, 0xbe92a520, 0xbb8ded03, 0x3da1bc12, 0xbcd6df54, 0xbe1d71f2, 0xbd609f7b, 0xbdfc56fa, 0xbde151ce, 0x3cdab307, 0xbc4c88bd, 0x3d6e3087, 0x3e5fa8c3, 0x3cfb8715, 0xbd5067cd, 0xbdf1e832, 0xbce0a323, 0x3db1947e, 0xbd5a4809, 0xbe70724e, 0xbc4be49c, 0xbe038c38, 0xbe2438ba, 0xbd3bcaf7, 0xbb79d964, 0x3d5d4528, 0xbe0deed2, 0xbea46b5d, 0xbdd37bb4, 0xbbc5a382, 0xbe1bfb5e, 0xbe545482, 0x3da4099c, 0xbcbb2a39, 0xbb81161f, 0x3da111ae, 0xbdf41927, 0x3e4e5a19, 0xbdc2b5bc, 0xbe1f4a5d, 0xbdbc3e41, 0xbd529061, 0x3dcb0e9d, 0x3b79db57, 0x3dd5cff1, 0x3d891963, 0xbdbb921d, 0x3e29e8cf, 0x3db35973, 0x3deac3ed, 0xbd0a1195, 0xbe02b4eb, 0xbe06aed4, 0xbe400485, 0xbe93ede6, 0xbe8e6dbb, 0xbd11276f, 0xbe1711aa, 0xbe182b33, 0x3de82e5e, 0x3d156e83, 0x3d2472a3, 0xbca8b170, 0x3ceadd15, 0xbd30dcad, 0x3db04ea9, 0x3dcf309d, 0x3df6e2bb, 0x3e3e2cc2, 0xbb1acfde, 0x3d029355, 0x3ca7dc5f, 0xbe88d840, 0xbdb7a9ab, 0xbe04fc31, 0xbe0b7709, 0xbe6a97da, 0xbe56bc3a, 0xbe69fda2, 0xbde7a180, 0xbcd4d5ef, 0xbe08fa14, 0xbcc8cb94, 0xbe503205, 0xbe3d8608, 0xbe1e4a02, 0x3da1f7c2, 0x3d580ec4, 0xbe1b109d, 0xbe586120, 0xbe19ae99, 0xbdcd29b8, 0xbd7bf3b4, 0x3c86976b, 0xbb45cdb7, 0x3bc8b498, 0x3dd6f54a, 0xbc84f83f, 0xbc2d666c, 0x3e0f1ff7, 0x3e47b1c0, 0x3dbc2e94, 0xbd9ed7fa, 0xbd898053, 0x3d83ceda, 0x3d308c34, 0x3e2f0eee, 0x3e008380, 0x3dee1008, 0xbd06e986, 0x3d0c4177, 0x3dde069c, 0x3db6a6ea, 0x3ccf2d48, 0x3c820dc7, 0x3d0d80bb, 0x3da12f26, 0x3ac4e6dd, 0x3daeed10, 0xbdb00187, 0xbd82f457, 0xbe3ce9e9, 0xbd433e23, 0xbda71aaf, 0xbe830dfa, 0xbdb363ac, 0xbe1014d0, 0x3dc96422, 0xbdd674db, 0xbdff3c7f, 0x3bd5c8c3, 0x3d39474e, 0xbd35fd40, 0xbe1c5ded, 0xbd6a9a39, 0xbdc3c0c5, 0xbe9441ca, 0x3dab0224, 0x3d7ab3e1, 0xbc579de5, 0x3d0a7725, 0x3c23feae, 0x3d94ff4f, 0x3e0443b8, 0x3e91d6c4, 0x3e72b8bc, 0x3e279030, 0x3ce31138, 0x3e854780, 0x3e99244f, 0x3e10b29b, 0xbc6bea77, 0x3d5d8b87, 0x3e1b7c17, 0x3dca949c, 0xbca0321e, 0xbd213f31, 0x3e0d4a1c, 0x3e65818e, 0x3ccf9f2e, 0xbe48a7e7, 0x3cad53ba, 0xbc72815f, 0xbd128564, 0xbe043104, 0x3df48287, 0x3e23d4b3, 0xbe3c3de3, 0xbe831958, 0xbe91e487, 0xbcee1f84, 0x3cf3837d, 0xbeb9a03a, 0xbef72cea, 0xbe7a103f, 0xbd775aae, 0x3cd1c5f5, 0xbe85023d, 0xbdad22f7, 0xbda9871a, 0xbd230206, 0xbdf98188, 0x3d4b39a8, 0xbdb2eccd, 0x3d587fd4, 0x3db2dde4, 0xbcfd179e, 0xbe00f63c, 0xbda45d17, 0xbe1ecb44, 0xbe2ab0b5, 0xbe9bd042, 0xbdba87dd, 0xbe89a394, 0xbe4862cd, 0xbe37ea3b, 0xbe8d57a1, 0x3c3f3b66, 0xbc86936d, 0xbe7289fe, 0xbdd483ea, 0xbd88e16c, 0x3db628d2, 0xb842a400, 0xbe0be716, 0xbe39fe05, 0x3dc5c9d3, 0xbd274728, 0xbdad5ed1, 0xbb86775f, 0xbddad6c6, 0xbd899c0d, 0xbd8c0ebd, 0xbdcf16cf, 0xbe2cdcdd, 0xbe191161, 0x3d4eb5b8, 0xbe0103a9, 0xbe370838, 0xbdb7c412, 0xbc869ea4, 0x3d168cc5, 0xbd03cc05, 0xbe406732, 0x3d0e3f61, 0xbd2d567d, 0xbd48359d, 0xbe0d293c, 0x3e2fa3b5, 0x3e777a4d, 0x3e018886, 0xbd283843, 0xbd2ca5ea, 0xbe212331, 0xbe370375, 0x3d9ef2b5, 0x3e1cfc61, 0xbe21e85f, 0xbd955177, 0x3e422fdc, 0x3e2c49b8, 0xbe4a2dc7, 0x3c5423a2, 0x3e224a1e, 0x3e2eaa44, 0xbe2b61c3, 0xbe8b3b37, 0x3e0ab35d, 0x3dcbddf2, 0xbe417d99, 0xbec0cb5c, 0xbe787458, 0x3dbc80e6, 0x3da741ba, 0x3db11f7f, 0xbd995db7, 0xbe513db2, 0x3de736c0, 0x3c7f784a, 0xbe02c6ef, 0xbe181d2d, 0xbbb05901, 0x3dab1e8b, 0xbda62c24, 0xbc01fcc7, 0x3e83c67d, 0xbc482758, 0xbd1ceb80, 0xbd22dd4d, 0x3e0abc23, 0x3deb9539, 0x3d0f7963, 0xbd2af356, 0x3cafe1df, 0xbcc74ed9, 0xbda569f9, 0xbd1ac99b, 0x3d158f86, 0x3d4a7bf6, 0xbdf6a2f0, 0xbd95c1da, 0xbdf43069, 0xbe8a76ec, 0x3c8f45ab, 0x3e3c7cc3, 0x3c3e215b, 0xbe9a8ac1, 0x3e1e8d81, 0x3e80ed45, 0x3dc1a45e, 0xbeddf782, 0xbe972995, 0x3e29bb2c, 0x3ded0d89, 0xbea06f15, 0xbe8a70da, 0xbe925ab3, 0x3e02c4e7, 0xbd4455b9, 0x3d5b6a64, 0x3d4739f7, 0x3c8032d7, 0x3e565c27, 0x3e06c5e8, 0x3e1ab751, 0x3db6c916, 0xbd8d14ec, 0xbc7d8cbb, 0xbe8dad1b, 0xbddcea6a, 0x3e05844f, 0x3e3b2a50, 0xbe968962, 0xbef91878, 0x3e086bb0, 0x3e323997, 0x3db4017b, 0xbeadac58, 0x3ce5c247, 0x3e89e7ca, 0x3ce7c0f1, 0xbe552b33, 0x3d60c978, 0x3e29d241, 0x3d8480de, 0xbd4a5f05, 0x3c8e3d17, 0xbe5d8304, 0xbd8a5c1e, 0xbdc5d29a, 0x3ca811fb, 0x3e385000, 0xbdf4b655, 0x3db9f928, 0x3e4ae4bf, 0x3d042abd, 0xbbe71b55, 0xbded864e, 0x3d8e9be9, 0x3dc159d6, 0xbd8ab445, 0x3d645b9f, 0x3e003a72, 0x3dcf0b48, 0xbd6eec27, 0x3cbaf47d, 0x3e1eac03, 0x3cd61afa, 0xbd9012bf, 0xbe61144a, 0xbdb2a6e8, 0xbd08e354, 0xbd72eeba, 0xbdbeaac2, 0xbb852216, 0x3e34652a, 0xbe10b545, 0xbe1ddbb4, 0xbeb86b74, 0x3e644984, 0x3de87666, 0x3c0d61ee, 0x3b317819, 0x3d06a95b, 0x3e10eb5a, 0x3d137b79, 0xbdee3072, 0xbd292ae5, 0x3c7dbf89, 0x3d9cfde1, 0xbe4563f1, 0xbe9fc8ea, 0xbda645ca, 0xbbe5c93c, 0xbda7f3c5, 0xbe420ff6, 0xba952daf, 0xbdbf7e39, 0xbd619123, 0xbe0640bb, 0xbc6f7f1b, 0x3e193d98, 0xbe444e70, 0xbd734fde, 0x3d2f0344, 0x3dd2546b, 0x3dd0f580, 0xbebdd9c5, 0x3d1cbced, 0x3d33dc5e, 0xbdde0aaf, 0xbcba0c60, 0xbe13d035, 0xbf01b62e, 0xbea4b4b8, 0xbe4ff4a6, 0xbddc3454, 0x3deb281e, 0x3d4d48e1, 0x3d58b69c, 0x3d73d3b9, 0xbd8a6438, 0x3c151c9e, 0x3e43dc19, 0x3de1ea8b, 0x3d972757, 0xbc72bd51, 0x3d2bcf7a, 0xbd9488d8, 0xbd2a85fd, 0x3ddeeb11, 0x3d6750a1, 0xbe21bd22, 0xbe21987d, 0xbd0ee07b, 0xbd3b69f7, 0x3dbbb423, 0xbe404191, 0xbf0257b8, 0xbe9f68af, 0xbdc95696, 0xbc29d5d6, 0x3c860112, 0xbe626adc, 0xbe7583c7, 0xbd58f29d, 0xbcfdcbc5, 0x3c8d434e, 0x3d9a5d85, 0x3d0d3fd4, 0xbd706097, 0xbd4c4209, 0x3d5b55cd, 0x3e4e1f59, 0x3e4763c2, 0x3e018e2a, 0xbdc4c678, 0x3dd2754d, 0xbcab5b19, 0xbdacaf30, 0xbe018a96, 0xbe053753, 0xbcc71229, 0xbd22eb9c, 0x3e0bc42d, 0x3df0fda1, 0x3df4ff8a, 0xbe04bd12, 0xbe43b754, 0xbda87bd5, 0x3e0d8cb1, 0x3da0e7f1, 0xbdb0e743, 0xbd98907f, 0xbe052c2c, 0xbd999323, 0xbd99ec31, 0xbc282160, 0xbd8dfd4b, 0xbdffafa3, 0x3d730df4, 0x3d1b4556, 0x3dfa9b53, 0x3e6ba079, 0x3cb8166f, 0x3dcd4c5b, 0x3b9cf3ff, 0x3e6fed01, 0x3ecd33d4, 0x3e7cf465, 0x3d9bf9c7, 0x3da0cdee, 0xbd7cd4c9, 0xbb8f532b, 0x3e079a89, 0x3d98d9ab, 0x3db0f99a, 0xbed107ec, 0xbe80d6c1, 0xbe17f29c, 0xbda56d54, 0xbe109aa7, 0xbe31737e, 0xbdc5a2f0, 0xbe2eee38, 0xbd7c2603, 0xbc952f8f, 0xbe092d01, 0xbd9800a2, 0xbdf40d01, 0xbd327c52, 0xbdaed4b7, 0x3e2a7ed5, 0x3df6d0f1, 0xbe8acdf3, 0xbdb4f5df, 0xbe14410b, 0x3d7fe461, 0x3d9fc2bb, 0xbc010509, 0xbca5f952, 0xbdeb48d6, 0xbddd556c, 0x3dde8946, 0x3be76f13, 0xbdcc4986, 0xbe35683d, 0x3d4ee80e, 0xbcdac847, 0xbda4db8f, 0xbe0503fe, 0x3d835404, 0x3bf77c3a, 0x3db904a5, 0xbd0429ee, 0xbe10e4da, 0xbcf26ada, 0xbb2d136e, 0x3dd67e5e, 0x3e2addc8, 0x3d286e84, 0x3e044c67, 0xbdec349b, 0xbcfb1d1c, 0xbc770b06, 0xbb2bb8f4, 0xbc91db2f, 0xbd5a2de3, 0xbe416bcf, 0x3c7ebc57, 0xbc88c486, 0x3cf8019c, 0xbdaac651, 0xbcfe7359, 0xbdc1da4c, 0xbcd7c10d, 0x3d91970b, 0x3dd47366, 0xbcd18162, 0xbb414e71, 0x3d76a0cb, 0x3d019592, 0xbd32c048, 0xbe6107d6, 0xbe109a63, 0xbe157b68, 0x3e09df90, 0x3c49f16e, 0x3d54e9ab, 0x3d9f2653, 0x3d1e1204, 0x3d8e42c3, 0xbd67652c, 0x3d215d90, 0x3e51141b, 0x3e6095f5, 0x3dccb1c9, 0x3d11481b, 0xbd5707f2, 0xbc1b645d, 0xbdc52f57, 0xbe0f1252, 0x3d9781db, 0x3cb5eb84, 0x3da4ebae, 0xbc39af0c, 0xbd4c2af1, 0xbdd9f80a, 0xbe12f788, 0xbd3c6de1, 0xbd2841ca, 0x3cc1d43d, 0xbcdb268e, 0xbe3b350f, 0xbe1cc419, 0xbe576028, 0xbe3f8a16, 0xbe292bb8, 0xbe2aa7aa, 0xbddbc6eb, 0xbde7b3ad, 0xbc4ee44b, 0xbe0324ec, 0xbe721661, 0xbe9d377b, 0xbe532d5a, 0xbbdc0f8c, 0x3e4038a7, 0x3df0025a, 0xbdebbffe, 0xbeb4f034, 0xbe1f6354, 0x3e10c547, 0x3da3228b, 0x3dcca656, 0x3d8d263e, 0xbb7d8cc6, 0xbdc4f104, 0xbcdfeae3, 0x3deb6823, 0x3e26c8ab, 0x3e1c39f5, 0x3e09cb66, 0x3b2440a4, 0xbe06be98, 0x3d430931, 0x3d7a0456, 0xbd28fbbe, 0xbda5c2be, 0x3e404111, 0x3e920653, 0x3e7a5b4f, 0x3d386b22, 0x3dfa9100, 0xbd81a776, 0xbd8a3f7c, 0x3e17d596, 0xbdbccbe8, 0x3e0b7332, 0xbd588a7d, 0xbe545b2a, 0xbd935335, 0x3df2582e, 0xbdaf5007, 0x3e098b40, 0x3db8ffb8, 0xbd006744, 0xbd9dd081, 0xbe2e03bd, 0x3cdb4d10, 0x3ded5bab, 0x3c77c20f, 0x3af32673, 0x3da70d84, 0x3e828c51, 0x3e4b8d12, 0x3e39e063, 0xbe253b28, 0xbe25cf43, 0x3e6aa596, 0x3e46ce7f, 0x3da99bd1, 0xbd1d4e66, 0xbe535290, 0xbead09fa, 0xbe30a84f, 0xbd9ae584, 0xbcbeb5b2, 0x3bc4b45f, 0xbd73be1f, 0xbe005398, 0xbe047ced, 0xbb2a7b2a, 0x3cb5437c, 0x3daea14d, 0x3c369ba3, 0xbe143e1a, 0xbe505ca7, 0xbe3112e4, 0xbcf1c84a, 0x3b92edde, 0x3deb29d2, 0xbdd140f4, 0xbe5786e9, 0xbe41e34e, 0xbe7832ec, 0x3c8c582e, 0xbdd24572, 0xbe5c6791, 0xbc80f7b4, 0xbc8f8d45, 0xbdd3c9e1, 0xbc920c04, 0xbdc2aad1, 0xbc9fed35, 0xbd47a4a6, 0xbdbabc54, 0x3dc13170, 0x3de652a5, 0x3dad5b2b, 0xbd9791de, 0xbddef58e, 0x3e224f7a, 0xbbb81bd0, 0xbb53ec52, 0x3dffe1fb, 0x3cf8177e, 0x3deec4ce, 0x3e008f33, 0x3d87127b, 0x3d667526, 0xbe540b7a, 0xbe31bef4, 0x3df17689, 0x3dff3001, 0xbdebfe49, 0xbe3319ac, 0x3db17e6d, 0xbea0fe8d, 0xbe0f3fa0, 0x3bce7a57, 0x3da55150, 0x3e8dcacd, 0x3e661c27, 0x3e6ee514, 0x3e558dbc, 0x3d7b84a3, 0x3d500a98, 0x3d25e227, 0xbbc8e86c, 0x3b9ee145, 0x3db6e547, 0x3dd474e2, 0xbcd29902, 0xbc78ced0, 0xbd965654, 0x3dbcff0b, 0xbd2b1bd9, 0xbc381d5c, 0x3cb0f522, 0x3ce448c9, 0xbd387faf, 0xbe28f7cf, 0xbead00d8, 0xbec9f37c, 0xbe2087bb, 0xbdaf447a, 0x3dc02d62, 0xbd9e84bd, 0xbd7238b2, 0xbd5e0942, 0x3bd7bb30, 0x3b9ae46d, 0xbd1369b7, 0x3dbd08d3, 0x3df01bf9, 0xbe1e55e6, 0x3d54c492, 0x3c4e95d5, 0xbd469328, 0xbe07d32f, 0xbe33e94c, 0x3db8b350, 0xbcb7b9eb, 0xbe07088b, 0x3c15cae3, 0x3de9ed2e, 0x3d8fe42d, 0x3d6b9faf, 0x3e709024, 0x3e588952, 0x3e21b5fa, 0xbe05dc47, 0xbe0bb9a4, 0xbdc05d2f, 0x3d0e86e0, 0x3d19cd5d, 0xbe124d70, 0x3d0d1d1b, 0x3e056a73, 0x3dd451f6, 0x3e03a661, 0xbd2c832f, 0xbdfcacc6, 0xbc480376, 0x3d68b8a6, 0x3e455ea3, 0x3de6386a, 0x3d222c2a, 0xbe37ed31, 0xbc9c45dc, 0xbd1c8f21, 0x3de2bb23, 0x3e8cd46f, 0xbc1f5c55, 0xbe155ef4, 0xbda65ca6, 0xbee6ba15, 0xbdfb52d0, 0x3d3e0a60, 0x3dbfb94d, 0xbcd6c454, 0x3c6dff6f, 0x3d3fdba5, 0xbd174c28, 0x3dd17bbe, 0xbd5a76c9, 0xbccd98c7, 0x3d6c2593, 0x3c4bfb06, 0x3da7a7e3, 0xbd8cca8e, 0xbe92b420, 0xbe4cf76c, 0xbe209d5f, 0xbe8f4a57, 0xbe556130, 0x3db93257, 0xbd4c7fa1, 0xbe30b604, 0xbde568aa, 0xbd9df193, 0x3e4b12b3, 0x3e0d3379, 0x3e0956d4, 0x3e14496a, 0xbc2221cb, 0xbd0920e7, 0xbdaddf05, 0x3bff26d4, 0x3d796b81, 0xbbfc7740, 0xbd9ffd63, 0xbe8f9c4a, 0xbe6dfca6, 0xbe54bb7b, 0xbd09715e, 0xbd80f228, 0xbd2d83f9, 0xbe4d6bf1, 0xbe13cafc, 0xbd07e932, 0xbd8954ba, 0x3d188f82, 0x3df69fe1, 0xbd4388d2, 0xbceb0a16, 0xbdf8b191, 0xbe3adfe7, 0xbcf75572, 0x3cc01add, 0xbd2013b3, 0x3d606f93, 0xbd32b340, 0xbe594f50, 0x3df1fd91, 0x3e2361a5, 0x3d75816f, 0xbec7b85e, 0xbdff36bb, 0x3e1589a6, 0x3d644b34, 0x3b029729, 0xbe7b2ef9, 0xbd47522b, 0x3c717a80, 0x3e340f5e, 0x3d175d8a, 0xbe59e513, 0xbc782598, 0x3de91263, 0x3e62d799, 0xbea13946, 0xbdaa989f, 0x3e2594db, 0x3e6131c6, 0x3d92efb9, 0x3d0af9b1, 0x3d5833d4, 0xbe3bdba6, 0xbeb27f02, 0xbe5572c7, 0xbc70bb3a, 0xbd505056, 0xbe934aad, 0xbe519209, 0x3b1e6eca, 0xbd42a74a, 0xbd9d0933, 0xbead6efe, 0xbdbf439d, 0xbb49eac2, 0x3ce38422, 0xbccdfa2e, 0xbe8013b9, 0xbda14e77, 0x3d94cbf6, 0xbccc62f8, 0xbd2edb2c, 0xbd61a8a0, 0xbd141ef5, 0x3dc4df9d, 0x3c8dabe8, 0xbd498c0b, 0x3d4f03e2, 0x3e0a3311, 0x3e13bcac, 0x3e036b5d, 0x3e2da313, 0x3dbac2af, 0xbdefb921, 0xbdb90352, 0xbca4cfee, 0xbda7a0b7, 0xbe9baf45, 0xbe963523, 0x3acf4623, 0xbe6109eb, 0xbec082ba, 0xbeba6f0c, 0x3cf31763, 0x3b937672, 0xbe318718, 0xbec2a5d7, 0xbe8d8add, 0x3e0a84bd, 0x3b097a5b, 0xbdd91251, 0xbe2bccac, 0x3d38a488, 0x3d976d68, 0x3e5100c6, 0xbd6dd622, 0xbf01e5b5, 0xbe189be8, 0x3df62953, 0x3d79a964, 0xbe827c6b, 0xbe864d93, 0x3e4dbd83, 0x3da1d8da, 0x3d8113e5, 0xbe8b14be, 0x3d87dd17, 0x3e91208e, 0x3e066ec1, 0x3e0df171, 0xbe4d5d44, 0x3d802ac0, 0x3e17d495, 0x3b82c1f3, 0x3da51e46, 0x3e21e3bd, 0xbcd3277c, 0xbba90a9c, 0xbdc95009, 0x3d5a6fed, 0xbdac5ac7, 0x3d2cfbd0, 0xbdfd5a1b, 0xbe624591, 0x3d9359a4, 0x3e2937c4, 0x3de66f52, 0xbcb139ac, 0xbda34854, 0xbcd2c2f5, 0x3e16f469, 0x3de90622, 0x3a50cfa9, 0x3c9fa83c, 0xbd9d48fb, 0xba868b75, 0x3d5fe0fa, 0x3cd9d848, 0xbdbc1a3e, 0xbe847544, 0xbda13bd7, 0xbde0b2eb, 0x3b47bac8, 0x3d07ffe6, 0x3d86aef7, 0x3cbb89f8, 0xbe9c2313, 0xbb10808f, 0x3df2d0a9, 0x3d9d7388, 0xbd4286ae, 0xbd9ab0f2, 0x3e8b75ec, 0x3e1739cc, 0x3daf8662, 0xbeaa68f8, 0x3da4a1e8, 0x3eb62cca, 0x3e44ec9c, 0xbc60393d, 0xbdb02ebc, 0x3da67b93, 0x3e13ba88, 0xbb868349, 0xbd14d891, 0xbc634bdf, 0xbce5d11a, 0x3d267748, 0xbe23d39e, 0xbb87436e, 0xbe681422, 0xbe18efff, 0xbe7a614a, 0xbdc75f64, 0x3d905842, 0x3db8725a, 0x3e4cfa77, 0x3dafb66c, 0xbd26b897, 0x3c3f3e4d, 0x3a152214, 0x3e0477fa, 0x3e947905, 0x3e36dce0, 0x3dcce8cb, 0xbd894234, 0xbe6b2847, 0xbdb0a72b, 0x3c74ac01, 0x3d93b9fd, 0xbc7ca661, 0xbe0cc662, 0x3d241da0, 0x39e4a986, 0x3d262554, 0xbddc5e22, 0xbe423c70, 0xbdc77e25, 0xbde0e263, 0xbc1ba89d, 0xbe029142, 0xbe159071, 0xbcc3a5e7, 0xbde0905e, 0xbd615fa1, 0xbd9e7262, 0xbdc25813, 0x3dfd613c, 0x3dadf283, 0xbd98ebf5, 0x3d3de236, 0xbd7e3082, 0xbd471478, 0x3d4352ac, 0x3d83e79b, 0xbbdffa99, 0xbd0bb75b, 0xbdd3e401, 0xbe09d7b0, 0xbe108e53, 0x3c412d61, 0x3d620835, 0x3da59b9f, 0xbd626d91, 0xbd7d1b07, 0x3de1efbd, 0x3da91731, 0x3e1cc25c, 0x3de06113, 0x3e32a28e, 0xbd031a8c, 0xbd9eea18, 0xbdfd52c7, 0xbe4af1dd, 0x3e22ae62, 0xbea973f5, 0xbe4897d7, 0x3c950fc8, 0x3c7ae3a5, 0xbd3337df, 0x3ca35f9b, 0x3e1c3361, 0x3d8a8b8e, 0xbda36cc4, 0x3d402fb3, 0x3e5f0064, 0x3da87dcf, 0x3e61a1a0, 0x3da09790, 0xbdf4137e, 0xbd74c6d0, 0xbea3137c, 0xbd8f23c8, 0x3e5fe02e, 0x3d81a62b, 0x3c12a8e9, 0x3e004fd9, 0xbd044ece, 0x3ccab579, 0x3e4d8387, 0xbd87e870, 0x3dfa3243, 0x3c2637bb, 0xbeb26d27, 0xbdf237ef, 0x3d93433e, 0x3d4586d0, 0xbcdc005e, 0xbd285aa6, 0xbe02e1e2, 0xbe1ac00a, 0xbe057107, 0xbded22c0, 0xbe06c351, 0xbc1ae684, 0xbda92d7a, 0xbe28191e, 0x3d4a2349, 0x3c5d1ac2, 0xbe0bc2e2, 0x3c1e0d33, 0xbe0ca799, 0x3c917864, 0x3cf3a640, 0xbde60cdb, 0x3e4662f4, 0xbd54dff0, 0xbe373f0b, 0xbd89ae10, 0xbdee8b60, 0xbe07dd1a, 0xbc61c125, 0x3d9fe3d1, 0xbc4d612b, 0xbdf3cce4, 0x3de94c22, 0xbd0f8ede, 0x3dc25284, 0x3e1b1516, 0x3d84c164, 0x3e3ac427, 0x3da6bf68, 0xbc977fd4, 0x3cce3a94, 0x3e0a6e66, 0xbc103ef8, 0x3e16e614, 0xbd87089b, 0xbea4486a, 0x3da507db, 0xbdeac5ee, 0x3c7ef4f8, 0x3e060cc6, 0xbd849152, 0xbdc9aef8, 0xbdd2d82a, 0xbe98d70a, 0x3c770c87, 0xbd49af59, 0xbd91a612, 0x3dc54d41, 0xbe8d773a, 0xbe3ccfa1, 0xbe174797, 0xbd0ab88f, 0xbdab0423, 0xbe56b865, 0xbe3e489e, 0xbe338d64, 0xbd083bd5, 0xbd782e51, 0x3db65513, 0x3d59a9c0, 0x3da1f7db, 0x3e0c3f43, 0x3e09c42d, 0x3e1140f3, 0x3de05daa, 0x3da698be, 0x3e30b2fa, 0xbd9b3196, 0xbde9db58, 0xbd872162, 0x3daef33a, 0x3d906065, 0x3db7738a, 0xbe389311, 0xbe6cc146, 0xbdae5481, 0x3ccbce78, 0xbbafba41, 0xbe7a1324, 0xbe7a8b92, 0xba9f7db0, 0x3da1f4ed, 0xbcb5f88f, 0xbd1c538e, 0x3d2820f9, 0xbda19663, 0x3d524b5f, 0x3c5a235e, 0x3ca18113, 0x3dcded1c, 0x3d2dbf7e, 0x3e144496, 0xbc9406fb, 0x3e1ceee9, 0x3df808ec, 0x3e0fd255, 0x3cff8110, 0xbc2edff1, 0xbd1af038, 0x3c6d89cf, 0xbc7ce6ff, 0xbda428c8, 0x3d0538f2, 0xbd938ddf, 0xbda30459, 0xbc4abc76, 0x3c8d96da, 0xbcda8ea5, 0xbdab740a, 0xbe0abc2d, 0xbca253fa, 0x3c2bccd7, 0x3b1527be, 0xbde04cf0, 0x3d1b26e3, 0xbe4a726f, 0xbee988e1, 0x3e5bbce3, 0x3e8a596c, 0xbcf0f7e2, 0xbd9c73c6, 0xbdf79009, 0xbdbfef9c, 0x3e6acc08, 0x3e645fe1, 0x3d263810, 0xbe1887be, 0x3c003a86, 0xbd4ee48a, 0x3eb2a9ea, 0x3e37cb06, 0x3cb8ffdd, 0x3da9fcd3, 0xbe2451dd, 0xbc97824f, 0x3e154873, 0x3d35287a, 0xbe4c390e, 0xbe1c94f8, 0xbe5e61d9, 0xbe22cac7, 0xbe06c040, 0xbdd54ef0, 0xbe957f1b, 0xbe582b8a, 0xbe32b350, 0xbe1afd48, 0xbd87fd63, 0xbc9fd472, 0xbe6145af, 0xbd391193, 0x3c95deaf, 0x3d681475, 0x3d2cd95d, 0xbdae23e8, 0xbe334990, 0x3d7f3ef3, 0x3d3b91e0, 0x3d6e4644, 0x3e2472cd, 0x3db37f68, 0xbcb20b6b, 0x3b8b13bf, 0xbcab28a5, 0x3a7d63fd, 0xbca39e78, 0xbe14818f, 0xbe13f95c, 0x3d56a540, 0x3d83816f, 0xbd4459f4, 0xbde26324, 0xbd024634, 0xbdfc5991, 0x3dcd8cc5, 0x3df2f4a1, 0xbcec2f5f, 0x3d4eb882, 0xbe125feb, 0x3db2e446, 0x3e580723, 0x3c14c13d, 0x3d6ec701, 0xbb536d37, 0xbc4635ec, 0x3e1a3933, 0xbc90e775, 0xbe3041ff, 0xbe8703c0, 0xbe8011b0, 0xbd4cebe9, 0x3ca5ab39, 0xbc679bbc, 0xbd09f046, 0xbe9ffedd, 0xbe9d1b5e, 0xbe8dc176, 0x3d892750, 0x3df0f1e4, 0xbdf93b6a, 0xbe97bd5a, 0xbe49cbc9, 0x3d5e5bde, 0xbe660f64, 0xbe95575d, 0xbd969600, 0xbdc62b89, 0xbb00da95, 0xbd936f7b, 0xbdb12175, 0xbcc3bd81, 0xbe13197d, 0x3e55b105, 0x3d8ace22, 0xbd577063, 0xbdbc5395, 0xbe1182bc, 0x3c53f91b, 0x3ceb2337, 0xbe3b5785, 0xbe93cb42, 0xbdbb7175, 0x3c0f7a7b, 0x3de1c4cc, 0xbddd23d1, 0xbe9a188d, 0xbdf831ee, 0xbc8dcb0f, 0x3dd8add0, 0x3d2d564f, 0xbe1557dd, 0x3c47f739, 0xbd011e9c, 0xbdf32b61, 0x3c6772bb, 0xbd32c5c6, 0xbdb2023d, 0xbd091d43, 0x3d8c1aa7, 0x3db6545c, 0x3d2226e2, 0xbda4a021, 0x3d72d48b, 0x3d04a555, 0xbc99527c, 0x3e1b30f5, 0x3bb861aa, 0x3e2cbf1c, 0xbd31a656, 0xbe33f83b, 0xbdb10869, 0xbd0601f7, 0x3b36e1e7, 0xbd40b0ef, 0x3da79a7d, 0xbd8dea25, 0xbe331466, 0x3c42c72b, 0x3ea76b4a, 0x3e322810, 0xbe2d731a, 0xbeb262c4, 0x3e8210c7, 0x3e404074, 0xbdcf44f3, 0xbe1a4224, 0xbda1b883, 0xbdee7bda, 0x3bfd4ffc, 0x3edb3503, 0x3ea6e8aa, 0xbc9a9c18, 0x3d63a644, 0xbe4ce1d6, 0x3e0d8ffa, 0x3e5f2b50, 0x3d471088, 0x3d13230c, 0xbe6c4357, 0xbe9271fc, 0x3e0a6558, 0x3dd3e72d, 0x3d22212d, 0xbf0aa3f6, 0xbdfcfe61, 0xbd0c6593, 0x3d02c0e5, 0xbe38f6c4, 0xbd8031d9, 0x3e41e336, 0x3ba7a153, 0xbc6ce275, 0xbd291d9b, 0x3e4fd0bb, 0x3e33bb50, 0x3dbc00f4, 0xbdccf887, 0xbc2f36b3, 0x3e05dd55, 0x3e779490, 0x3e69b6a3, 0xbdca709d, 0xbe7b2cdb, 0xbe1bcc2f, 0x3e19eef0, 0x3e1cbee3, 0xbd366df2, 0xbead6dc6, 0xbde815af, 0x3b877bee, 0xbc137fcb, 0xbe05e80a, 0xbda0f91f, 0x3c6315c0, 0x3da1cb19, 0x3cae7a99, 0xbdce7931, 0xbdc5c614, 0xbe9dbdbf, 0x3da56ddd, 0x3e63d261, 0x3d3265ef, 0xbdd76adb, 0xbe9df9f1, 0xbd6f3f4c, 0x3e19b4ba, 0x3e27f879, 0xbcad2dd2, 0xbe8f3b70, 0x3df9b731, 0x3e5d07ab, 0x3e01b994, 0xbda5a767, 0xbe058ae0, 0xbcaeab64, 0x3da75748, 0x3df95b59, 0x3c3ff166, 0xbda496ae, 0x3d31688f, 0xbd52a05a, 0xbd7faeee, 0x3be7342a, 0xbdd58078, 0xbdf2ccaf, 0xbd348302, 0xbe6f8371, 0x3cb51d70, 0xbc903e0a, 0x3dd5d51a, 0x3cd45327, 0x3e4be0ae, 0x3d1d03ee, 0xbd97f38c, 0xbc85c9d3, 0xbbce39ce, 0x3eae0a11, 0xbd405e06, 0xbeb53769, 0xbe2ceb59, 0x3daf5a78, 0x3c76181c, 0xbe76f8e5, 0x3ca4e019, 0x3dca594e, 0x3e19ce43, 0xbd3090fe, 0x3d0365ea, 0x3d3b847f, 0x3d493566, 0x3c331b80, 0xbe1588e4, 0x3e0354b8, 0xbd097782, 0xbcc1b9d5, 0x3e071526, 0xbd91ca77, 0x3df3bdc8, 0x3d3e9995, 0x3e0228be, 0x3de38e86, 0x3dcf90ad, 0x3dd3ba16, 0x3dc1fc5d, 0x3d87e8a3, 0x3d16647f, 0x3e5381dd, 0xbc34c24a, 0x3d233a24, 0xbb07e7c5, 0x3d95f16e, 0x3e217735, 0x3b316b0b, 0xbcabc444, 0xba4ed6ea, 0xbd57ef70, 0x3c868cd9, 0xbc5e197a, 0xbc88593d, 0xbe4274c6, 0xbdf136f8, 0xbe020144, 0xbe954f3a, 0xbe45a904, 0xbce02601, 0x3ac1b11a, 0x3dd8a006, 0xbd097ef8, 0xbd06bf26, 0x3daebe54, 0x3e533803, 0x3d3cbcd4, 0x3e2caf71, 0x3e025caf, 0x3e54ed92, 0x3dfd8490, 0xbe79b23d, 0x3e1c21fd, 0x3d560b36, 0xbc2d27ca, 0x3c2ed6dc, 0xbe1a12e6, 0x3e3490e1, 0xbe006386, 0xbe900f7f, 0xbec914ab, 0xbe9cc582, 0xbdc2a3ab, 0xbea0fd4c, 0xbe8a1d0e, 0xbea475b7, 0xbe1892e7, 0xbe1c06dd, 0xbe83e308, 0xbea9ce0d, 0x3bf4917f, 0x3da3d32d, 0xbd270a89, 0xbd21690c, 0xbd5f535f, 0x3d483028, 0x3e277964, 0x3cd7640b, 0x3c5783a1, 0x3d1b93cc, 0x3cbd3e19, 0x3ded1744, 0x3d0f8d62, 0xbd705c37, 0xbbe1d1c0, 0x3db5afc2, 0x3e2a1d74, 0xbc796ebc, 0xbe7eae97, 0xbe5e1544, 0xbe6a3d79, 0xbc197e6f, 0xbe83d357, 0xbdc889de, 0xbdb18bf6, 0xbdce503f, 0xbe46efbc, 0xbdada371, 0xbd313205, 0x3d2c30f6, 0xbdc7b8bf, 0xbd5d795d, 0x3e75a1e3, 0xbd6f114e, 0xbdcebf67, 0xbe3da105, 0xbe5dad9b, 0xbd073df5, 0xbe07bcc6, 0xbe8f6540, 0xbe9e3a1c, 0xbd5e4ef1, 0xbe0c162e, 0xbe4fb6dd, 0xbea437dd, 0xbe003678, 0xbc3b95da, 0xbe89dcc0, 0xbd2e4fa7, 0xbdb984cc, 0x3d863a4c, 0x3de50ab3, 0xbe31f133, 0x3de0710f, 0x3e3e6902, 0x3d837aea, 0x3cb99226, 0xbe06b861, 0xbe088ea8, 0xbe0e87c1, 0xbe6948ab, 0xbce40526, 0xbe7d6261, 0xbe6aecc1, 0xbed9d349, 0xbeb55f6e, 0x3e029791, 0xbdd06758, 0xbee11513, 0xbf056891, 0xbd989a76, 0x3e8dac38, 0x3c97e8eb, 0xbe8d23a1, 0xbdca668b, 0x3e206429, 0x3d27a1c9, 0x3c491183, 0xbe023d83, 0x3ddd9562, 0x3d0c252b, 0xbe24fce7, 0xbc17b370, 0x3d2694ff, 0x3d182c0e, 0xbe303b34, 0xbd78eecd, 0xbc8b3964, 0x3d2eb33b, 0x3d0ab656, 0xbe103945, 0xbe42b04e, 0xbba4207b, 0x3da887de, 0xbdd32f14, 0xbe86b340, 0xbc5c2844, 0x3daf864f, 0x3d824ae0, 0xbe431bbf, 0x3d4cfbd6, 0xbcabf88b, 0xbc391db0, 0xbe04e134, 0xbdc2615f, 0x3dfa7444, 0x3d5b1c12, 0x3c9a18e3, 0xbea37d76, 0xbea85655, 0x3d8ffcff, 0x3dc099fd, 0x3d5ae8dd, 0xbe8fac7f, 0xbd2497fa, 0x3d63c672, 0x3e2ae867, 0xbe232530, 0xbdb211ef, 0x3db7e8d3, 0x3e10e132, 0xbe2033aa, 0xbdd8f801, 0x3e00f4b2, 0x3dfbc34e, 0xbe1412a0, 0xbedc2000, 0x3e2b4661, 0x3dfd3ad0, 0xbcebe415, 0xbeb96335, 0xbeab67c7, 0xbd6aad43, 0xbe27d62d, 0xbe6d35f4, 0x3d067f88, 0x3e0d1970, 0x3e256d53, 0x3d22dfe1, 0xbe9a9620, 0xbc6ecd80, 0x3c8f1bf4, 0x3e5d7f74, 0x3ccfd13b, 0xbed2a4f4, 0xbc81b6d7, 0x3e191198, 0x3e5ce115, 0xbe2f445e, 0xbe127f64, 0x3e42914f, 0x3e301ce4, 0xbcd6ba79, 0xbe160de6, 0x3c933cf9, 0x3e09d464, 0xbdcc24f1, 0xbe4b96df, 0x3c985360, 0x3da0b2c9, 0x3d5030ae, 0x3dd17155, 0xbe5d2330, 0xbe5f5ce5, 0x3e138de4, 0x3dd4a2ae, 0xbe283911, 0xbe3d87b9, 0xbdddf064, 0x3e1170af, 0xbd33ffb2, 0xbe475ef8, 0xbe31cbb3, 0x3dbf2251, 0x3dd586bc, 0xbe203952, 0xbdf47b0f, 0xbe3b290b, 0x3dcfb52c, 0x3e0d5611, 0xbe4bae49, 0xbd8b5685, 0x3c3180ab, 0xbcb4b0c8, 0xbe7eae20, 0x3d48fc6e, 0x3e4f2ce2, 0x3e5944a1, 0x3dea7060, 0x3c17330f, 0x3df74e4c, 0x3e210a08, 0x3e34e9ce, 0x3dd370a9, 0xbc1324f4, 0x3e27e5c6, 0x3dae66fd, 0x3de8d892, 0xbe17997f, 0x3d8f0443, 0x3e01da06, 0xba0de218, 0x3bbdf8f9, 0xbd14f067, 0x3e4b349b, 0x3dcd1f67, 0xbd78421c, 0xbe054282, 0xbe2d6b49, 0xbb1c245d, 0xbdc5085e, 0xbd1171f1, 0xbe9994e7, 0xbe526f93, 0xbc0c1d75, 0xbcb0a6b3, 0xbdc96f30, 0xbe98bcd3, 0xbde1739c, 0xbe0430ee, 0xbd821a04, 0x3e160faa, 0xbe0a8bfb, 0x3df4445a, 0xbc600092, 0xbda2a92a, 0x3e363915, 0x3da9bd1e, 0xbd656a57, 0xbe266c8d, 0xbe27bea2, 0xb99a8fa4, 0xbdc76594, 0xbe269656, 0xbd721e5b, 0x3d49403c, 0xbc87a654, 0xbd64d701, 0xbda4a4a1, 0xbda15237, 0x3dd475df, 0x3afbf4a8, 0xbd5d58fe, 0xbe31629c, 0x3d344fbe, 0x3dc9f667, 0xbd195b78, 0xbd371dbd, 0xbc12c5d8, 0x3dd95b6a, 0x3b0e7519, 0x3d59f2a5, 0x3cb2b4ee, 0x3d426a53, 0x3d3fe2ea, 0xbde98536, 0xba7e3cd0, 0x3ccc2fe6, 0x3c70d8f4, 0xbd85ac73, 0xbe842b7d, 0xbd30dc1c, 0x3c254d17, 0xbda306c9, 0xbde21e80, 0xbe8bcc6d, 0x3c297bff, 0xbd8f6798, 0xbc20b9df, 0xbe2b5d13, 0xbdf2b9ba, 0xbd19b09d, 0x3d4b2f28, 0xbe266e1f, 0xbe8ba69c, 0xbb082396, 0xbe774282, 0xbe158b5b, 0xbda695c7, 0x3cb3d1d0, 0x3b8873b2, 0xbd48d36c, 0xbca95a4d, 0x3c97c3a8, 0x3d132140, 0x3ce8a942, 0x3d44cf67, 0x3d106639, 0x3c82f519, 0x3e8e0c31, 0xbdca3f47, 0xbe16327b, 0xbdb96b6f, 0x3d57738a, 0x3df6cbbd, 0xbd1a591f, 0xbc94f6bd, 0xbd76cc55, 0x3d9dd72b, 0x3e1b1919, 0xbe01e16f, 0xbbd5d584, 0x3e806344, 0x3d4246e7, 0x3da70568, 0x3da6d0a1, 0x3b4ae82f, 0x3db78649, 0x3deda055, 0xbcf63778, 0xbdb19fc6, 0x3da69a61, 0x3de0747f, 0x3e2f9510, 0xbde98487, 0x3d5c370f, 0x3e0ece41, 0x3d40b1b7, 0x3d1c5409, 0xbe2232fd, 0x3dff218a, 0x3e114354, 0x3c17f2ac, 0xbac02940, 0xbe54dbf3, 0x3d8654d5, 0x3d7988b2, 0x3df34ee3, 0xbb224b5c, 0xbd77d58d, 0xbdb6c8f2, 0xbe01b671, 0xb9f86f20, 0x3d48a2f6, 0x3e258dce, 0x3d2729c1, 0xbd9760eb, 0xbc87eb9b, 0x3e139fab, 0x3e899f51, 0x3d102084, 0xbc74771b, 0x3dddb237, 0x3e2e6411, 0x3e82e5bd, 0xbce6e873, 0x3b6f329c, 0x3dcb24d9, 0x3de68f50, 0x3d8b73db, 0xbe169ade, 0xbc7c35a3, 0x3de8e10f, 0x3daf8072, 0xbda8c663, 0xbdb43930, 0x3cdb75b0, 0x3cee78b2, 0xbc1917bb, 0xbd712a66, 0xbe2f08b5, 0xbeb7cfbc, 0xbda2a1e8, 0xbcda8edb, 0xbd1ee01a, 0xbe66e9a0, 0xbe04f125, 0x3c91e858, 0xbd884b62, 0xbe26eefa, 0xbed0d9b8, 0xbd074a9f, 0x3cbeead9, 0xbcd829f4, 0xbe7aa7d6, 0xbea20366, 0xbe0171f9, 0x3d9c83c9, 0xbe27352b, 0xbebe52a6, 0xbe95e114, 0xbe5ab0c6, 0xbca77b46, 0x3cfa7b32, 0x3c953fff, 0x3bf01902, 0xbd309d70, 0x3d310846, 0x3d81d401, 0x3dd5ef95, 0xbce57d00, 0xbc607a6e, 0x3d3d18ce, 0x3de95f72, 0xbd001f75, 0xbc95fd11, 0xbe0bedbc, 0x3dd11ae2, 0x3e38d408, 0x3e3624b3, 0xbda935a5, 0xbe271667, 0x3d61b851, 0x3e00771c, 0x3d22e478, 0xbd233461, 0xbe13b27e, 0xbdade067, 0x3d87951b, 0xbd9c55cd, 0xbd66dcf1, 0x3a48ca88, 0xbdcf3b03, 0xbdf6dcce, 0xbe57f71f, 0xbdc117a4, 0x3e0ebe1e, 0x3d91863c, 0xbe32a774, 0xbe7c1f4d, 0xbd3e5fa4, 0x3d0907ef, 0x3c317894, 0xbe33582f, 0xbe371d60, 0xbd888e16, 0xbeb45325, 0x3d5422ef, 0x3a6f7784, 0xbc66dcea, 0xbe45e58d, 0xbe66220d, 0x3e772fb0, 0x3c84e4bb, 0xbb97919c, 0xbd2d2cb7, 0x3cd7f790, 0x3e843172, 0x3d81c5fe, 0xbe0637e1, 0xbdd3f2b8, 0xbdf7e995, 0x3d94d413, 0x3e4d0f66, 0xbe932a9a, 0xbe26094f, 0x3d1c3c0f, 0x3c82572b, 0x3e432320, 0xbe9b9165, 0x3ceb0b09, 0x3eae3c91, 0x3d69047e, 0x3d84e545, 0xbdd52367, 0x3e01e5c9, 0x3eaa5445, 0x3e8119f0, 0x3e438f96, 0x3e2c0e14, 0xbcb0e03f, 0x3d880e91, 0x3e29abf3, 0x3e22be0e, 0x3ddc1b94, 0xbb1677b7, 0xbcec2f5a, 0x3b759c0e, 0x3bee7289, 0x3daf9389, 0x3e281c7f, 0x3b58dc54, 0xbe4b5bf1, 0xbe6ec1c8, 0x3e2b142d, 0x3e635fb2, 0xbd945b5c, 0xbe746234, 0xbdb0cd35, 0x3e26550f, 0x3e93fa72, 0x3e2b8441, 0x3e1c7610, 0x3da13e3f, 0xbe11a48f, 0xbdafbf16, 0x3d8255dc, 0xbd8880b7, 0x3de11f2d, 0xbdbec2ef, 0x3d0a806f, 0x3de9caf3, 0xbd8752fb, 0x3e5833a9, 0xbdb2ffc0, 0x3d281dc3, 0x3e3e3d09, 0xbd1a598e, 0x3e2e2417, 0xbdeded86, 0xbb93dd16, 0x3e3fbae7, 0x3ce19a3d, 0xbd966a39, 0xbe884154, 0xbc1c2f7a, 0x3e884d0e, 0xbe9c4cfb, 0xbe85178c, 0xbeb7d112, 0xbeae821f, 0xbe9e539b, 0xbce42f69, 0xbdc2bbe0, 0x3dbac784, 0x3e1009ed, 0x3e783c6f, 0x3dfc4d5d, 0x3e8cbfa4, 0x3e8fea77, 0x3ea37b9f, 0x3e95a6bb, 0xbe10929e, 0xbd8501bb, 0x3db33490, 0x3d4effeb, 0xbd16cf44, 0xbdbbfe0b, 0xbe2901c4, 0xbd8e8c26, 0xbdf350c8, 0xbd51aec5, 0xbd41f0fb, 0xbbd70570, 0xbd79920c, 0xbde93b29, 0xbe0c30d1, 0xbcd3b48b, 0xbd27391f, 0xbe00d332, 0xbdfda5b8, 0xbccd0f27, 0x3c4c26d9, 0x3e076bfd, 0x3e2850cb, 0x3cadb07d, 0x3dcc39d2, 0xbaec8a98, 0x3d8edc67, 0x3daf0e67, 0x3de91010, 0x3d2d7268, 0x3d9c87c9, 0x3ddedd94, 0xbb17cb7d, 0x3dec3310, 0x3cb6982e, 0xbd83d126, 0xbd464645, 0xbccf73f7, 0x3e09b10d, 0x3e476d31, 0x3d0d3311, 0x3d330d0a, 0x3e15108c, 0x3eaa9c13, 0x3e793037, 0xbe5e4fc3, 0xbe747a16, 0xbe955a87, 0xbe63c68d, 0xbe7cbe49, 0x3cf8ba28, 0xbe06d1cc, 0x3b251497, 0x3dd6fd3a, 0x3d4ddb2f, 0x3dc2e455, 0x3cb1bfc6, 0x3d9fafb2, 0x3d04613a, 0x3a4a2da8, 0x3dba97da, 0x3e37ae70, 0x3daa0253, 0xbd662cb4, 0xbc90bd59, 0xbd9996c4, 0xbbf7986c, 0x3ce8bbf1, 0xbe556109, 0xbdfa5bf7, 0xbe57007a, 0xbe8cfcca, 0xbd5ac415, 0xbe0f4abb, 0xbdecd5f5, 0xbbddf5da, 0xbb66861f, 0xbe42e245, 0xbe7eaa65, 0xbe2b5b00, 0xbd306ac6, 0x3d00b5da, 0xbd1ad6a8, 0xbe1d0eca, 0xbd44e7e5, 0xbc2104aa, 0x3cd6bc9c, 0xbd1372f0, 0xbe927112, 0xbec144c0, 0x3e2bffca, 0x3bd8fa1b, 0x3e1e2759, 0x3db9b5a0, 0x3db3653c, 0x3e0b162b, 0x3e465842, 0x3e92b538, 0x3e2a89dc, 0x3de1e265, 0xbe4dbf7c, 0x3d6dd7e6, 0xbd857bcb, 0xbe80bca0, 0xbe010641, 0xbdcbe1fa, 0xbdcff9e3, 0x3ddd61e7, 0x3ca7e4dc, 0xbde9a385, 0xbdbb998a, 0x3c8b8f81, 0x3d8031b9, 0x3ccb063e, 0x3c75096b, 0x3d04b9da, 0xbcb45b3c, 0x3cd09268, 0x3d70c064, 0xbd917077, 0x3c21516a, 0xbc34be05, 0xbdee49c9, 0xbe3a4671, 0xbe7320ca, 0x3d42272b, 0xbd3977fa, 0xbda9a415, 0xbe94211e, 0xbe7774cb, 0xbc276379, 0x3dfd1eff, 0x3ccef3d7, 0xbe11fc95, 0xbd0d13f9};
const uint32_t NN_Lenet_Param_layers_conv2_bias_Size = 16;
const uint32_t NN_Lenet_Param_layers_conv2_bias_Data[] = {0x3c3075cf, 0xbd505dbb, 0xbcc7972a, 0xbda79142, 0x3d889a81, 0xbc8d03bf, 0x3ca2a202, 0xbc113fc1, 0x3dcad06f, 0x3dd77aad, 0x3d05a7b4, 0xbc2ac376, 0xbdd7af99, 0x3cd4e36f, 0xbc634dbe, 0x3ca86e91};
const uint32_t NN_Lenet_Param_layers_fc1_weight_Size = 30720;
const uint32_t NN_Lenet_Param_layers_fc1_weight_Data[] = {0x3de973c0, 0x3e717d83, 0x3e6fe147, 0x3de2b55f, 0xbcbba990, 0x3d081dfc, 0xbde66aa1, 0x3d8fcde7, 0x3d38aa24, 0xbca9a2df, 0xbd01e549, 0xbd1811a7, 0x3dccc023, 0x3d3ad748, 0xbc0a6c2f, 0xbdc9668d, 0xbd4b772d, 0xbd8a2d6b, 0xbddab49f, 0xbdd085ea, 0xbd9d0c69, 0xbdc66f9d, 0x3e2eba08, 0x3e405df1, 0x3c8e5477, 0x3dcaeb78, 0x3e006dcd, 0x3d292669, 0x3dab217c, 0x3d97e493, 0xbcbc2251, 0xbb5b96f7, 0xbd763136, 0xbd3c96a7, 0xbd6da7b5, 0xbb2dc77b, 0x3db89a5b, 0x3e49dff5, 0x3cb7ecf0, 0x3d3e95f8, 0xbcf0dfae, 0xbd631edd, 0xbe0ef48e, 0xbdc48f94, 0xbdcbcee3, 0xbc07fc34, 0xbdbd3b7e, 0xbde970c0, 0x3aea0230, 0xbc3e8a5d, 0x3c51ed5c, 0xbd5b4601, 0xbda5db5a, 0xbe5dd704, 0xbe153052, 0xbdb4f90b, 0xbdb18939, 0xbd24b644, 0xbe3199b5, 0xbbacaee5, 0x3e114a14, 0xbe70df8d, 0xbdc1a441, 0x3d299119, 0x3e096cd7, 0x3d869014, 0xbd34d6cf, 0xbe32e3da, 0x3d3da4e3, 0x3a98b6e9, 0x3d44a568, 0x3a7c409c, 0xbcc8981e, 0xbcbca2ea, 0xbc746562, 0xbc457e7a, 0x3c32887b, 0xbd6b069e, 0xbda739dd, 0xbd88504b, 0x3c8ae2b9, 0x3e055a80, 0x3b1c8e64, 0x3dd25db7, 0x3e2d1138, 0x3d8e6469, 0x3dab3b51, 0x3ca56d0e, 0xbc448252, 0x3dce1cba, 0xbe463e93, 0xbe040064, 0xba885b0c, 0xbc46681a, 0xbded3d9f, 0xbdda3132, 0x3db2b4de, 0x3d72696a, 0x3e2fa7ae, 0xbd3b2d94, 0xbd5cdd7a, 0x3bef0154, 0xbd5ebee9, 0xbde6445e, 0xbda36546, 0x3adcd4b8, 0xbd189a42, 0x3c943989, 0x3d9ac0ad, 0x3d78ec98, 0xbd91e65e, 0x3dd60a61, 0xbe18b82a, 0xbe337e82, 0x3ae1f55c, 0x3cec7d22, 0xbdd03e1c, 0xbe225f08, 0x3c0e7cef, 0x3e3fd4e3, 0x3d10fb21, 0x3dadebb2, 0xbba336bf, 0xbc8ff87e, 0x3cba0274, 0xbe73abca, 0xbe31877a, 0x3da05be5, 0xbd1fcb0e, 0xbdf6de42, 0xbe6f231c, 0x3c9a868f, 0x3d27fddb, 0x3e1a9a67, 0x3cd1323a, 0x3d863171, 0x3cc79b00, 0x3d345081, 0x3d6ad132, 0x3ce579cc, 0xbd84f01d, 0xbc5db47d, 0xb928f062, 0xbdee36d6, 0x3cba6441, 0xbc59955d, 0xbe5f37dc, 0x3d477929, 0x3db149b7, 0x3d99bd16, 0x3e05027f, 0xbdb1b686, 0x3cff983a, 0x3ba04197, 0xbca1cf32, 0x3ce2d434, 0xbd36eca6, 0x3d1ecd49, 0xbe509fbc, 0xbded1141, 0xbe35af7b, 0xbdf7b1c5, 0xbdab8886, 0xbc8ad0c6, 0xbe520f35, 0x3e0357a7, 0xbddddff9, 0xbc761f7e, 0x3ce51652, 0xbe408135, 0x3c4aae7e, 0xbddaa59e, 0xbe0cc703, 0xbd682e0b, 0xbc2b2629, 0xbd84335f, 0xbde85296, 0x3d97e30f, 0x3dc556f4, 0x3dc963c1, 0xbc0dd352, 0xbdb39002, 0xbd9d547d, 0xbdc23b36, 0xbd0e490f, 0xbddf0b0d, 0x3d8ad585, 0x3dd3a569, 0xbd67e5f4, 0x3dc8dd82, 0x3df2fa8a, 0xbdd267b0, 0xbe83eb1e, 0xbe1a6c98, 0xbd9da8c6, 0xbcd2916f, 0xbd77f1d2, 0xbd8e0321, 0xbe1cded3, 0x3c7ad273, 0xb8e4da77, 0xbdeec341, 0xbe405ccc, 0xbe2e3b84, 0xbe33b050, 0xbcbebccb, 0xbd201249, 0xbe273b08, 0xbd0d506b, 0xbe7c9b86, 0xbe16f82d, 0xbe030f0d, 0xbe0ca63b, 0xbe3e9e2a, 0x3d76efd1, 0xbc716a07, 0xbe19c740, 0xbe3bf58f, 0xbd93d5e5, 0xbd9e997a, 0xbd78d831, 0x3bea10b0, 0xbd8dac9e, 0x3c76c262, 0xbe5f57bd, 0xbd0193f2, 0xbd9f53aa, 0x3c01972f, 0xbe0c7ae2, 0xbdc0a0f3, 0xbd297312, 0xbdb1bae0, 0xbd370fc5, 0xbe1426a5, 0xbe16a4c4, 0xbd26d258, 0xbd9e5ae5, 0xbd96afd1, 0x3d39865f, 0xbde1098d, 0xbdfa7b33, 0xbcd813d9, 0x3c34bad0, 0x3dc7d37a, 0xbd7883c5, 0xbd119a9f, 0xbd542515, 0x3d199027, 0x3d8b1fb1, 0x3d07f367, 0x3e2045b6, 0x3d6d1aa7, 0x3bad11fd, 0x3dc4110b, 0xbbc3a954, 0x3b81edf7, 0xbdd2067a, 0xbd5385ef, 0xbe02ba80, 0xbd89953d, 0x3e423802, 0x3bed9a3b, 0xbe8fece8, 0xbddba797, 0x3d20fc34, 0xbdf6a9ed, 0x3d031f00, 0x3ccea4f2, 0xbd84ca17, 0x3c794a79, 0x3b88d900, 0xbd3107d4, 0xbe742a44, 0xbe1421aa, 0xbe01c8fb, 0xbddc8b0c, 0xbe5d010f, 0xbccae256, 0x3c0913c6, 0x3e13f26c, 0x3d4f7fc2, 0x3d3a4df1, 0x3cd7f561, 0x3d9b585c, 0xbe3a3a18, 0xbe46e3c3, 0xbe16868d, 0xbb768a5f, 0xbd4384cb, 0xbd89082c, 0x3d1fe96e, 0x3d5befc5, 0x3d874fcb, 0xbe28dd09, 0xbd9a4ef6, 0xbd2bb458, 0x3e5a8661, 0xbda5f602, 0xbcb63180, 0xbdc009ec, 0xbe20797b, 0xbd49bcae, 0xbe0dd33a, 0xbdbc59f5, 0xbe3bc877, 0x3dd373ec, 0xbcfeab75, 0x3e313e5e, 0x3dfb4c75, 0x3ad314da, 0xbe4f61be, 0x3e097899, 0xbd6b19ee, 0xbcd26cae, 0x3d934d82, 0x3e36d4c3, 0x3dc3f014, 0x3e3b7fac, 0xbddc4b89, 0xbe04354e, 0xbdf290c9, 0x3bdd42ba, 0xbccadb87, 0x3c88f827, 0x3df66245, 0x3e3ec795, 0x3b91d55e, 0xbcb2f885, 0x3e0b8c34, 0x3d7bfbef, 0x3d765487, 0x3dc406c6, 0x3c4ff051, 0x3c411c32, 0x3e1bac0c, 0x3da10df0, 0xbd965190, 0xbdfc4d9f, 0x3d4b98da, 0xbd9833b6, 0xbcc8394e, 0x3cd97c2d, 0x3dc5a8cc, 0xbd342250, 0x3c9a610f, 0xbd4c8d82, 0xbd2bfcde, 0xbe2dcf4e, 0xbe2e2181, 0xbe77aab8, 0xbd9fffe2, 0xbd566314, 0x3d2703b5, 0xbd12f852, 0xbc78b017, 0xbe37cff0, 0xbd9eb0f8, 0x3dd31cdf, 0xbcbc57c9, 0xbd50a57c, 0xbd688e4b, 0xbdfcaee3, 0xbccb2939, 0xbda3d4c2, 0xbe564e58, 0xbe1a2a8d, 0x3d832f91, 0x3d841fa4, 0x3dd0cca7, 0x3df15225, 0x3d72c7f1, 0x3db6f195, 0x3dde2c0a, 0x3bde4361, 0x3dcdc579, 0xbc02710a, 0x3dd7bb7d, 0x3cfb7e45, 0x3dfa0428, 0xbd5fc398, 0x3e773692, 0x3e3a77fb, 0x3ca7ce53, 0xbdbedf91, 0xbde64532, 0xbdba9f77, 0xbd90c6f6, 0x3d44c8f0, 0xbb92624f, 0x3b16a5bb, 0x3c83c31d, 0x3db75f3d, 0x3d8eaec8, 0x3c03e9ad, 0x3df76148, 0x3d0531e6, 0x3caef124, 0xbdbce24c, 0xbd186b94, 0xbdc59680, 0xbdeb6df9, 0xbd442169, 0x3bde2ac2, 0x3a881a4a, 0x3e7664e4, 0x3dd3810e, 0xbd6328c8, 0xbd664e64, 0x3e57eac0, 0x3d68c098, 0xbd1de558, 0x3c3939f3, 0xbda901c3, 0x3d69330b, 0x3dcc1f4a, 0x3db6f22c, 0xbdd1a1ff, 0xbcd03a5f, 0x3dbade26, 0x3e610f99, 0xbc803f9f, 0x3d840b1e, 0x3dc02c06, 0x3d81d7b7, 0x3e5e63e2, 0x3e24a135, 0xbce9c695, 0xbd8deac1, 0x3dc5d8c9, 0x3e14c42a, 0xbdd5a670, 0x3dd688f5, 0x3dce3dc9, 0xbdaa4103, 0xbe6e85e5, 0xbe7a190c, 0x3dda6de0, 0xbdc4cb59, 0x3c09f15e, 0xbe4af98e, 0x3e0132f0, 0x3d97e90d, 0xbb8759d5, 0xbe5943cf, 0x3daa75fd, 0xbdfc022b, 0xbd9187a2, 0x3da786d8, 0xbdc333cc, 0x3d1fd512, 0x3e4ffc0c, 0x3e67e0b5, 0xbda8c376, 0xbdc89aef, 0x3dced405, 0x3e3a920d, 0x3e41066f, 0x3e0e8868, 0x3ce2a3cb, 0xbe07623e, 0x3d9ced31, 0xbd68f276, 0xbc5c0b29, 0x3dba0b5c, 0xbc63abbf, 0xbdf1f49d, 0xbd4d679f, 0x3dd40ea3, 0xbccb52d7, 0xbe894f44, 0x3d8e7208, 0x3e2f6e84, 0xbe572e08, 0x3cfc2cf5, 0x3dc99c09, 0xbdd3892d, 0x3dd6f3af, 0x3e0a9cf5, 0x3e009a69, 0xbcb6b33f, 0x3d8ff3a1, 0xbd920caf, 0x3c572c72, 0xbd95e9ad, 0x3e092aea, 0xbdada7ab, 0xbd87f17c, 0xbd9503c5, 0x3e091075, 0x3d5efe0a, 0x3d6b7b6e, 0xbdcb14d3, 0x3e8df6ed, 0x3dbe1fde, 0x3c9c00e2, 0xbd0088fd, 0xbdc6a692, 0xbdb94403, 0xbe0ab748, 0xbdedf84b, 0xbe0dee3e, 0xbe61178f, 0xbe7874d0, 0xbdbfdafb, 0x3cd18194, 0x39d5ed76, 0x3b2e02ea, 0x3d358c78, 0xbcdbe192, 0xbdc098fe, 0xbd33b897, 0x3d3ed0de, 0xbe9cf1ab, 0xbe656cc7, 0xbd85fc71, 0x3db5e554, 0xbdb9ea41, 0xbe15af26, 0xbd8dc1e7, 0x3d6a0339, 0xbad39206, 0xbdb6cd24, 0xbe1635bc, 0xbdf22f00, 0x3e412d67, 0xbd4c1784, 0x3d29ffe7, 0xbdb980d8, 0xbd589bec, 0xbd8cd08e, 0x3c609fe6, 0x3d4332ce, 0xbdcd5ef9, 0xbdeb37c5, 0xbe1be04e, 0xbe333cc6, 0xbcc45977, 0xbcf812fe, 0x3d98c62e, 0xbd6224d2, 0xbc44eb0d, 0x3e14d360, 0x3d6c8fe0, 0xbd47e9c9, 0x3e2c7ae1, 0x3d942bc3, 0x3d366e23, 0xbdbcea73, 0x3da190e5, 0xbcfd0143, 0xbc3c37fb, 0x3e542b36, 0xbd43c9ef, 0xbcc73564, 0xbd684ebc, 0xbd9d464d, 0xbd872305, 0xbe0a69aa, 0xbe3976a7, 0xbdf13cea, 0x3dc61c55, 0x3e38966d, 0x3e0ca94b, 0x3e0d464f, 0x3e7ba956, 0xbcbaa733, 0x3d93a75d, 0xbdcc6406, 0xbd5f6233, 0xbd9ec9bc, 0x3d150a9d, 0x3d935cd6, 0xbe844b92, 0xbe0455fe, 0x3924b28b, 0xbdb4de4b, 0xbdb91239, 0x3d10fb43, 0x3cff887e, 0xbd4b3bc6, 0x3e5523d4, 0x3e0a3ce9, 0xbc10c25f, 0xbd86bf83, 0x3e144912, 0x3df06a25, 0x3d898c85, 0xbcc3f054, 0xbdfc7046, 0xbd1c5998, 0x3d0e810f, 0x3d99739c, 0x3cc2048b, 0xbcb10bba, 0x3ccee701, 0xbd479561, 0xbe1e5e1b, 0x3bbd2e65, 0x3e41a16d, 0x3e1bc9c4, 0x3ba86acc, 0xbd5a92fc, 0x3d74c3f6, 0xbda025f7, 0xbde87eae, 0xbe7a5d10, 0xbe134e47, 0xbd340d2b, 0x3e02897b, 0x3dcf4214, 0x3d224080, 0x3d98c174, 0x3dd2af5a, 0x3def3345, 0x3e83018e, 0x3e09bb80, 0x3dc60701, 0x3df6497e, 0x3c591a2a, 0xbe135aa7, 0xbe3d670a, 0xbc8bd946, 0x3cb6b503, 0xbdaf22be, 0x3e09af70, 0x3d13493e, 0xbdc34e40, 0xbe38465d, 0x3dca46d5, 0xbd11f42b, 0xbd0ddfb0, 0xbdde90cf, 0x3dda377a, 0x3bf32c58, 0xbd55dac6, 0x3dce63cf, 0x3d117981, 0x3e7b5322, 0x3db34bdf, 0xbc660006, 0xbdfc258d, 0xbdd343a3, 0x3d8cfb10, 0x3d24ce3f, 0x3a83393c, 0xbd4333ff, 0x3d5c962f, 0xbda4622b, 0x3e0cdab3, 0x3d879923, 0x3e368d85, 0xbc9409d1, 0x3d7746fa, 0x3db8caac, 0xbd9ed750, 0xbd9e59d9, 0xbe25d35b, 0xbd2c9e6d, 0xbdbc15e5, 0xbcb5474d, 0x3da6c9fd, 0xbe07eb1d, 0xbe06d21f, 0x3d832edc, 0x3e22bde8, 0xba66d093, 0x3de9341f, 0x3d2ee576, 0x3ce4557e, 0x3d1faf94, 0x3da5dfd1, 0x3e42ecae, 0xbe002bae, 0xbdbc584c, 0xbe186fa5, 0xbdea3a88, 0xbdf11a62, 0xbe318c5e, 0xbdcbd130, 0x3e602a38, 0x3d926063, 0x3da195d3, 0x3d5b9c90, 0x3d0345de, 0x3dc7a9d3, 0x3d024bb0, 0xbda5cb01, 0x3e440e76, 0x3dc41710, 0x3e19e215, 0x3d0f81b5, 0xbd5847ab, 0xbe1f1c02, 0xbd34e905, 0xbcad63be, 0x3de881b8, 0x3d7a54bb, 0xbdfddec8, 0xbe0bac69, 0xbeaa126a, 0x3e0316e3, 0xbde3f713, 0xbe206e51, 0x3da350c4, 0x3d925a6a, 0x3ddf41aa, 0x3d82d0cf, 0xbd0610d7, 0xbbad5e49, 0xbdba71d9, 0x3ca7b3f4, 0xbc1fffb3, 0xbd2155ac, 0x3d4156cc, 0xbd9823ff, 0xbd2c6766, 0x3c1e908d, 0xbbd373e1, 0xbe496986, 0x3d86b536, 0x3d214b71, 0xbd21f09d, 0x3d367bbd, 0xbdce1f45, 0x3dcaddcf, 0xbdea52fa, 0xbdb4cd1a, 0x3c052852, 0xbd582804, 0xbccac72c, 0xbd2f379a, 0xbc9c361b, 0x3c8f51b6, 0xbdc81f70, 0x3dc1ff20, 0x3a9f275d, 0x3db4ef0b, 0xbd3bff3b, 0xbda6bfa0, 0x3dc0305c, 0x3e11fb18, 0xbdb2e78d, 0xbde3edc1, 0xbe04dabf, 0x3e23a888, 0x3a0b0eb3, 0xbe01598e, 0xbd97727f, 0xbc81d81d, 0xbde3f1a5, 0xbe81f23f, 0x3e53002f, 0xbe074ffe, 0xbdb3c795, 0x3d6f7b63, 0x3db9c62f, 0xbdae81c9, 0xbd8a5b3a, 0x3d54d6b5, 0xbca53b4e, 0xbdd926d2, 0xbd3716aa, 0xbcbea834, 0xbdfb6ab5, 0x3d6c4d7d, 0x3cdec25f, 0xbcef4cba, 0xbe27f7c0, 0xbd2a8e0c, 0xbd7169e8, 0x3c735d41, 0x3cfb64d9, 0xbd2a98d8, 0x3d0f462b, 0x3a92c32f, 0xbc616d84, 0xbc35da38, 0xbca4890a, 0xbd8a2bb2, 0x3c491f29, 0xba8de82b, 0xbd8fb12e, 0xbc10dbb2, 0xbd52a02f, 0x3bf77c82, 0xbbb31915, 0xbd26f424, 0xbc21a2ea, 0x3cfdd894, 0xbd6617be, 0xbd76b072, 0xbcdc36d2, 0xbd518d2e, 0xbd612ba0, 0xbc76764c, 0x3cbaa94a, 0x3cc28de6, 0xbd9b60d3, 0xbd5ae495, 0x3c06248e, 0x3cdd0f72, 0x3cf9f3aa, 0xbca57bb6, 0x3d4ab01a, 0xbcaeccc4, 0xbd170d9f, 0x3cfb417b, 0xbd3a4db5, 0xbcdd1314, 0x3d1538cb, 0x3baa81fb, 0xbccfc77c, 0xbc200a36, 0xbc9f0ce5, 0x3c57290b, 0xbd7d5763, 0xbd1a44ea, 0xbd3becd5, 0xbd76575e, 0x3cbec565, 0xbd4970cd, 0xbd6c2e41, 0x3c952872, 0xbcb77f08, 0xbd8fe6c9, 0xbd1809f4, 0x3d45d98e, 0xbd89ff02, 0x3d33843e, 0x3d2b837d, 0x39a825d9, 0xbba6994f, 0xbd663a9e, 0x3b64d99b, 0xbd3b04b5, 0x3cf0ecb3, 0x3cc221a1, 0xbcbc5972, 0xbcf66759, 0x3b9c0b3d, 0xbc1806fd, 0x3cc649e8, 0xbd174b6c, 0xbd654dcd, 0xbd65fc23, 0x3b60113a, 0x3d340aed, 0xbd4b1c94, 0x3d010800, 0xbb11330b, 0xbd61c7fb, 0xbd38f50c, 0x3c02cbf2, 0xbd646fc0, 0xbd6f765e, 0xbd202282, 0xbc54d168, 0x3cfbe028, 0x3cb23469, 0xbd05c896, 0xbd514f0b, 0xbd0edce2, 0xbd0ab448, 0xbd5e5bec, 0xbd776b28, 0xbd74f0e8, 0x3cb2a7a9, 0xbd0519ab, 0xbd5d30ff, 0x3d22f43f, 0x3ce6e530, 0xbd555d84, 0xbd53da57, 0xbd70addf, 0x3cf2a5c0, 0xbd9ec395, 0x3d23d70a, 0xbd7a951f, 0x3cd04334, 0xbca0e8ef, 0xbd5b26b7, 0x3ad5ce58, 0x3c6fc5f7, 0xbda31240, 0xbcb6a468, 0x3cf502b0, 0xbd107c89, 0xbd6d6402, 0xbc801ab0, 0x3cc81844, 0xbd7dc427, 0xbba34757, 0x3cc6f343, 0x3b9f9be5, 0xbd847a03, 0x3d15a593, 0x3cef554c, 0xbd90a70c, 0xbd636616, 0x3caa99cb, 0x3d2ec7c9, 0xbcac47fd, 0xbb67902d, 0x3cb136ab, 0xb9d037f1, 0x3d2b2387, 0xbc8a8854, 0x3ad9ad22, 0x3d056894, 0x3c83c24b, 0x3d1845b2, 0xbd181cb3, 0x3c48992b, 0x3d134d4f, 0xbd92f1fa, 0x3cb34d70, 0x3c5abbcd, 0x3d2a129b, 0xbd692df0, 0xbd4bf7eb, 0xbb3d25ee, 0x3d36b9fc, 0x3ced74ba, 0xbcd5d568, 0xbc4b0340, 0xbd85062f, 0x3bdfd3a1, 0xbd3afa70, 0x3b0b842a, 0x3c84c78b, 0xbbad81b8, 0xbc5873b2, 0xbc8329d5, 0x3c484778, 0xbc17d021, 0xbd86c515, 0xbc190211, 0xbd73f43a, 0x3c3b3fd7, 0x3bda16d4, 0x3d2aa0e9, 0x3d19ccf0, 0xbcf07d76, 0xbd2173da, 0xbd0cffbe, 0xbc77cd71, 0xbb7158eb, 0x3cbb29ee, 0x3cea347e, 0xbc1b47ed, 0xbd22c8c3, 0xbd8a984e, 0x3c16527c, 0x3b66296a, 0xbc1bb423, 0xbd9d8cdc, 0x3c8e49a4, 0x3c9d85ff, 0x3b6c27d5, 0x3d2be6ed, 0xbcf8b29d, 0xbd0ac1fc, 0x3b394192, 0xbc89f47d, 0xbc870a38, 0xbd547826, 0xbd9e3baf, 0x3d05c132, 0xbc4a705d, 0xbd756994, 0x3c2c675d, 0xbd8aa446, 0x3b01a6da, 0x3bc279dc, 0x3bd4ed80, 0xbd3a6042, 0x3cb156b0, 0xbd80b694, 0xbd1c1631, 0xbd0cd4ad, 0xbc937f89, 0x3cd1f63c, 0xbd61fdd0, 0xbd99ad67, 0x3c83192c, 0xbc180de1, 0x3c33cfd9, 0xbcc4fc61, 0x3d271549, 0xbc280533, 0xbda2ed2b, 0x3c900bc1, 0x3c3fc4e2, 0xbcf01805, 0xbcb63869, 0x3cff4c88, 0xbd987476, 0xbd9b6db2, 0x3d30e31b, 0x3cee04f0, 0xbc5648f4, 0x3d37426c, 0xbd87580b, 0xbc9d66f6, 0x3b723112, 0xbc82bcd0, 0xbc9664be, 0x3d2db88e, 0x3d791d88, 0x3c7f5c58, 0xbb9b8387, 0xbc3f4d20, 0x3d3f3821, 0xbd439c1a, 0xbbc0e3f4, 0x3cacf9d7, 0xbd96794d, 0x3d7cb19e, 0xbd1b88ff, 0xbd18558a, 0x3d217809, 0x3bfd3f2e, 0xbd6ee75d, 0xbd823b91, 0xbcd7c68c, 0x3ba370ae, 0xbce7a7f1, 0xbd8450ce, 0x3c553642, 0x3d23387e, 0x3bbfd61b, 0xbb452123, 0xbc75c7e2, 0xbd20bb43, 0xbd747ef9, 0xbc13cedf, 0xbd500448, 0x3c9f2d74, 0x3c1bfad4, 0x3d52242a, 0x3bdcea5b, 0xbcc43933, 0x3cb92438, 0xbbb55b8a, 0x3d07a461, 0xbd1d686d, 0x3956719c, 0xbcf4328f, 0xbd3dae8b, 0xbd36f362, 0x3d03fda4, 0x3cdca5bd, 0x3b6b6f86, 0xbc196e0e, 0x3c9c68d1, 0xbd5eb72d, 0xbd19f39a, 0xbcbc6049, 0x3d0a834c, 0xbd8cfc8a, 0xbd0967d4, 0xbd117252, 0xbd7394b1, 0x3cacba3a, 0xbd57ded0, 0xbc3803b4, 0xbb592834, 0xbd77417c, 0xbcaff9ce, 0xbc83d037, 0x3d4ea611, 0x3d443b29, 0x3ceae3b8, 0x3d133848, 0x3cb382c6, 0x383acaf3, 0xbd837b7b, 0x39a6b760, 0x3d01992f, 0x39a66a9e, 0xbd5e52ae, 0x3d2d72fb, 0x3b81f051, 0x3d3e99f4, 0xbbdbcf71, 0xbc0d3b8c, 0x3ac3450b, 0x3c874d30, 0x3d34f23a, 0x3cf8c54f, 0x3c8a917f, 0x3d04648a, 0x3d1d1f26, 0xbd8a5cfd, 0x3aeff35f, 0xbd27ef5d, 0xbd149c38, 0xbd171739, 0x3c3de970, 0xbc0bc564, 0x3d1ce5e6, 0xbc3caa76, 0xbd499497, 0xbd08a6c2, 0xbb479340, 0xbd3df986, 0xbc1f30e0, 0x3ceac85c, 0x3ccc2c1f, 0xbd5a35df, 0xbd1d7c5e, 0xbd3c644c, 0x3d06ba35, 0xbb6ed12a, 0x394c8064, 0x3c533588, 0x3d10eb42, 0x3d6943a6, 0x3c159ff0, 0x3c19f72c, 0x3c566111, 0xbce337c6, 0x3c33aa5f, 0xbceda558, 0x3d483e58, 0xbd09b398, 0xbd61daa6, 0xbd3d6d03, 0xbc34738a, 0x3c703f34, 0xbd34968f, 0xbc8734d1, 0xbd4377aa, 0x3d4ad298, 0xbc905bdb, 0xbcb28b5e, 0xbcc4cd14, 0x3d06f1db, 0xbd7e79ce, 0xbcd759d6, 0xbd4e3d71, 0xbbc03234, 0xbd3414c8, 0xbc72b109, 0x3ade8fdc, 0xbce56bad, 0xbd8d6948, 0xbd84235a, 0xbc4470b9, 0xbca3bf8f, 0xbd8e14f9, 0xbd80dc5e, 0x3d65331b, 0x3d02525b, 0xbc70fb8d, 0xbcf13e42, 0xbd126da4, 0xbd5c220c, 0xbc9c7fa2, 0xbd67850e, 0xbd7cc1e0, 0xbc11f2ad, 0x3d26a459, 0x3d47f080, 0xbd586061, 0x3c1698d9, 0x3d62c8d1, 0xbc5c68f4, 0xbd76e8b0, 0x3b975930, 0x3be5a603, 0xbd67395c, 0xbbcdc500, 0x3d385b50, 0xbc0186fb, 0xbcf44626, 0xbce664a4, 0xbc346ddd, 0xbd36b403, 0x3ba66e61, 0x3d5e1ecc, 0xbd74577f, 0x3d2d1a56, 0x3d1324da, 0xbcc14b0b, 0x3caf5bd9, 0xbce481ed, 0x3aca9277, 0xbbb28457, 0xbd7e4ec2, 0x3c221e20, 0xbd358d3a, 0xbd876133, 0x3c8f81bc, 0xbce75de3, 0xbd8cf745, 0x3be983e9, 0xbcd19b4e, 0x3c7c93eb, 0xbc29e8ff, 0x3d0f6264, 0xbd116f5c, 0xbd0caed5, 0x3d313e40, 0xbd63f01f, 0x3cef9906, 0x3d21858d, 0xbd3dbd59, 0xbc903c18, 0xbcc25ded, 0xbcd431b3, 0xbd6395d1, 0x3ccbe4ec, 0xbd2bf6d4, 0x3d3e33b6, 0x3d0d7ac2, 0xbd1a71d7, 0x3d21f876, 0xbd86889c, 0xbd22599a, 0xbca6043c, 0xbd8bdbf3, 0xbd1b22e9, 0xbd11a52c, 0x3c92fb91, 0xbc31ed45, 0xbcd1e8d4, 0xbc01d2fa, 0x3d031dbf, 0xbc7097bd, 0x3d07e02e, 0x3cc992bc, 0x3d74de84, 0xbd5663ed, 0x3d47b764, 0xbd226900, 0xbd1f417c, 0xbd1fecc1, 0x3cac792a, 0x3cbb3582, 0xbd188f9f, 0xbd473ef2, 0xbc1d2643, 0xbd3ac3fe, 0xbd8ecddd, 0x3cd3eca7, 0xbd56a860, 0xbd766bb2, 0x3d3dd6ee, 0x3d02f287, 0x3cc4770e, 0xbd031066, 0xbd68169f, 0xbc9d562a, 0xbc5c9597, 0xbd0a4acc, 0x3d29d8a7, 0xbd2bc151, 0x3d5ab24a, 0xbca0a5ad, 0x3c9ed1cd, 0xbd12e959, 0xbc1a6f78, 0xbd53bdce, 0xbc81c35b, 0xbd438b06, 0xbc94fc5f, 0xbcc6988d, 0x3be97073, 0xbc787d34, 0xbceeafca, 0x3cf966e4, 0x3c6c6807, 0x3caf0c70, 0x3d401a19, 0x3b8e1c28, 0xbc8c5d4c, 0xbd8ae3c8, 0xbcae5127, 0xbd861f1e, 0xbd84070d, 0x3d88b25e, 0x3de22f71, 0x3d538552, 0xbe40d7e9, 0x3ca4d838, 0x3dd69f2e, 0xbd83622e, 0xbebc43bd, 0x3d78d92c, 0x3d12682d, 0x3db3dcd5, 0xbc9b407d, 0x3e072854, 0x3d937cb6, 0x3d1c1598, 0x3d09a954, 0xbdbe1acd, 0xbadc499d, 0xbe15a121, 0xbc30cdb5, 0xbdd8e933, 0x3d8e0f34, 0xbd868de6, 0xbdf2d3fd, 0xbe526785, 0xbdd846cb, 0x3e5b989c, 0xbdba7b69, 0x3b9e42ef, 0x3e2b73fb, 0x3dc2a473, 0x3df4147d, 0x3e04da47, 0x3c6e43c2, 0xbe0a6db1, 0x3e16e7f9, 0x3da0b243, 0xbe019b92, 0xbe4590b3, 0xbdd328c0, 0xbc5a84a4, 0xbcc424a3, 0x3e73ac3c, 0xbbf9bbc8, 0x3cd0a010, 0xbd65b4eb, 0x3dcb88e8, 0x3de43c98, 0xbdf79e71, 0xbe8acfd7, 0xbe5bc8dd, 0x3da2b7ed, 0xbe45d292, 0x3d7b86e5, 0xbdc11dcd, 0x3dff1c65, 0x3ae3e390, 0xbc74ab81, 0x3c9a26e8, 0x3ded61b7, 0x3c2c9631, 0x3e572d1a, 0x3e1a2bb5, 0x3c6c09c2, 0x3c9d23b7, 0x3e265ca3, 0x3e396231, 0xbe044515, 0xbe648782, 0x3c9dd8ae, 0x3bc33f57, 0x3cd713ac, 0xbd5f572c, 0xbe02e328, 0xbe65d0dd, 0x3d867e68, 0x3d00aa82, 0xbdac9d36, 0xbdd694ef, 0x3c884291, 0x3dc66d86, 0x3e150f31, 0x3d0dafcc, 0x3caf25bb, 0xbde39e0e, 0xbe07fd7e, 0x3d314f20, 0xbe61d52c, 0xbd336170, 0x3d934bbd, 0x3e295d09, 0xbe0ca501, 0x3d93c58d, 0x3dcf4280, 0x3e3bebc8, 0x3dd2fe7c, 0xbdf3775f, 0xbc7fde41, 0xbcad6ca2, 0x3ddd9ae6, 0xbe116d58, 0xbe86b750, 0xbe2e8695, 0xbd4f1faa, 0xbd188a3a, 0xbcffe6e3, 0x3dc9ae61, 0x3d220e92, 0x3db50393, 0xbbe11749, 0x3e331770, 0xbd9ede8b, 0xbd6da55c, 0xbd922959, 0x3d8682b7, 0x3cfc8780, 0xbd2e9774, 0xbd036ac2, 0xbd4836ed, 0x3dbe640a, 0x3cbfd832, 0xbe32e014, 0xbe1ca5f5, 0x3dc94050, 0x3de8d44f, 0xbe72d1e4, 0xbc84f32d, 0x3dec808b, 0x3d6ba5c2, 0x3d040d53, 0x3e13f1fc, 0x3d6ba2ce, 0x3db906d2, 0xbce1abb5, 0xbe0694a8, 0xbe264fc1, 0x3ce31e7d, 0xbe3f8a21, 0xbd17321f, 0xbc114199, 0x3d9866c4, 0x3d9dde15, 0x3ce2902a, 0xbd5c8fcf, 0x3deba158, 0x3d8e2da6, 0x3deefa89, 0xbe258bac, 0xbc914680, 0x3e3d3716, 0x3db8ac88, 0xbd982929, 0xbd994a8d, 0xbe5f1510, 0xbe3abb54, 0x3dc4e71f, 0xbc98b26b, 0x3c3778f0, 0xbe888fc2, 0xbdab6d2d, 0xbe0a85c4, 0x3bb331ba, 0x3c1a09c0, 0xbe12095c, 0x3d936b93, 0x3d58d8a3, 0x3e3e44b7, 0xbd6c85da, 0xbc64f808, 0xbcf93aa3, 0x3d56bac4, 0x3ae9a070, 0xbe90ca1c, 0xbe51a804, 0xbe4d3169, 0xbdc86ac3, 0x3c8f5f3e, 0x3d792bc5, 0xbe384be0, 0x3d3f2b4c, 0x3e14f0a7, 0x3c69827f, 0x3bc55aa5, 0xbd74e61e, 0x3d8e56f3, 0x3e127f42, 0x3e34174c, 0xbe32a469, 0xbdf098ea, 0xbddaccc4, 0xbbafc1ed, 0x38fef228, 0xbd0e50d9, 0x3ccd5846, 0xbe68db29, 0x3b7ffcef, 0xbd425d65, 0xbdbf9a74, 0x3e73bbd9, 0x3d812fc2, 0xbd51c9eb, 0x3da1777f, 0x3df3e6e4, 0xbd888e1e, 0xbe141649, 0xbd033e01, 0x3d495811, 0xbe1fdbdf, 0xbd391456, 0xbe785b67, 0xbcf2e43d, 0x3dac47e2, 0x3e1682bb, 0xbdafd934, 0xbc84a6ef, 0x3dc8428c, 0x3d22dba9, 0x3c8e1ca2, 0xbd292ef9, 0xbb3e02a1, 0xbe084be0, 0xbd8d20c1, 0xbe5e1dae, 0xbe2b1e61, 0xbe55d61d, 0x3dab51f3, 0xbd006736, 0xbd4ee69b, 0xbc53071d, 0x3cc9163c, 0x3e35aa36, 0x3dfc49e2, 0xbe022b62, 0xbdf96ec1, 0x3ba209cf, 0x3e3a60de, 0xbdd37331, 0xbe7f6013, 0xbe762f69, 0x3d80ed2a, 0x3d19803a, 0xbd96c891, 0xbe4916e1, 0x3d681271, 0x3d472061, 0xbda22853, 0x3d80d359, 0xbe2138a7, 0xbe6a8303, 0xbe29874c, 0x3dc22ea5, 0xbcd67318, 0xbd6669b8, 0x3dcc1e33, 0x3e32abf0, 0x3e117912, 0x3e6ab555, 0x3d9049c5, 0xbc779705, 0xbe158b73, 0xbe09f753, 0x3bc35cdb, 0x3deccd52, 0xbcb9490f, 0xbd28fe5d, 0x3d7928c8, 0x3ced190f, 0x3c70ed24, 0x3d9dd606, 0x3d7994fa, 0xbe0f8fa7, 0x3d226a3e, 0x3e36df84, 0x3df12fd8, 0x3e2faf70, 0x3e3064ed, 0x3dfff0bd, 0x3de3d107, 0x3e003493, 0x3d3dea8a, 0xbd84eefc, 0xbd9bdbc4, 0xbe13b337, 0xbdd11d33, 0xbc9e4d8f, 0xbe06c084, 0xbc8b2469, 0x3c0a0945, 0x3c9f22e7, 0x3d8d3422, 0x3d107394, 0xbd862534, 0x3e4b7bdc, 0x3e7a42b2, 0x3dc8bf46, 0xbe50307a, 0x3dbed622, 0xbe1a3ac8, 0xbcaa56f7, 0xbd777649, 0xbb478362, 0xbc423419, 0x3d061f70, 0xbda2a9f8, 0xbd69c019, 0x3ca1d65a, 0x3d0f2f78, 0xbb15774e, 0xbd23d3fb, 0xbc8e9a63, 0x3dd717fe, 0x3ba2aa5d, 0x3bf87cbf, 0x3e2b7b55, 0xbd00f4bc, 0x3da45c46, 0x3d1c93f9, 0xbc73ca47, 0x3c44081e, 0x3cbf9d63, 0x3d9e547e, 0x3cddb813, 0xbd5a9fc5, 0xbe11ae37, 0xbe097eb5, 0xbc0a44da, 0xbe79c2ab, 0xbe570840, 0xbdc7d1c3, 0x3d4b7898, 0x3e2be076, 0xbda88e4f, 0xbd702ed3, 0x3d71851b, 0xbd368028, 0x3d2b6a0f, 0x3dd681d7, 0xbda71579, 0xbd2b47ef, 0x3ced0bb8, 0x3aa757c9, 0x3d0f6d34, 0xbcaff9e9, 0xbe09226e, 0xbdc7b0c8, 0xbdbc1184, 0x3d8633fb, 0x3e0e274e, 0x3dce7f87, 0x3d89b012, 0x3e4d8ac3, 0xbcb73ca3, 0x3c561cd8, 0x3c2e3d10, 0x3dc18a5d, 0xbcf7714b, 0x3d312a3d, 0xbcf38cb4, 0x3db60b2d, 0xbd8e65b7, 0xbe29a339, 0xbbf8e2aa, 0x3e5c3513, 0x3d81cb3c, 0x3e12cf26, 0x3dc32741, 0xbcb11467, 0x3d95fa86, 0x3d400306, 0xbdf43376, 0xbc5c9008, 0xbd20d846, 0xbbbe3503, 0xbdbc1ac4, 0x3cf9091f, 0xbe4666b6, 0xbd844e33, 0xbc5cee77, 0xbe84eb66, 0xbe715554, 0xbda15d77, 0xbd1afec1, 0xbe26e6e7, 0x3c030058, 0x3dd9f12c, 0x3e1a9c2c, 0xbcb5bea5, 0xbd85a2a4, 0x3cfb4a43, 0x3c05780c, 0x3da917cd, 0xbd6602e9, 0xbd6324d3, 0xbcc58b58, 0xbdc480f6, 0x3c9aff66, 0xbd9ef146, 0xbd0111fc, 0x3a0afa59, 0x3d8ca76c, 0x3c8ca792, 0x3cd0291e, 0xbd869880, 0xbda1829a, 0xbd97a98e, 0xbda1c5de, 0xbe02af14, 0xbd6e658c, 0xbd5ed317, 0x3bce5446, 0x3d95aa98, 0xbe200682, 0xbccbabc6, 0xbcfc46ff, 0x3cc4dbb9, 0x3e05c79e, 0x3d0a4c3e, 0x3c5fc01d, 0xbdcb04ce, 0x3cd6e0e1, 0xbd8003e8, 0x3c901311, 0xbe50703e, 0xbe3b6b37, 0xbe160579, 0xbcd0f83a, 0xbd4143d4, 0xbdda3866, 0x3d5bd7fb, 0x3e155f10, 0x3d370062, 0x3d8ac4a4, 0x3ca97e33, 0x3e6e600c, 0x3e010b44, 0xbbe2b918, 0x3e0f3c38, 0x3d339d31, 0x3dda06bd, 0xbd1130bf, 0xbe11150a, 0xbde57fd4, 0x3e4fef4c, 0x3c321373, 0x3e0f7844, 0x3da22853, 0x3d785b5f, 0x3e0b9bd1, 0xbe05990d, 0xbcff23db, 0xbab6d612, 0x3e0fe38d, 0x3dcdc7fd, 0x3e0a416d, 0xbe8b455b, 0x3aa44c27, 0x3d215336, 0xbde9fb49, 0xbdb02fb4, 0xbe3b5141, 0x3da04416, 0x3dcc01be, 0x3d899cf5, 0x3d1ce03a, 0x3e3af1ee, 0xbd82774a, 0xbbe2536d, 0x3d8c5ba5, 0x3d6071fb, 0xbdc6e8e0, 0xbc2e34c4, 0xbd9a30e1, 0xbd5aa56c, 0xbe07a829, 0xbb9adaae, 0xbd8a4ac9, 0xbd2ad5a4, 0xbdad2561, 0x3da5522a, 0xbdf15fc3, 0xbd80b3d7, 0x3d8240e3, 0x3db79f13, 0xbdee59d2, 0x3dcbec77, 0xbca8c5a0, 0x3d198ec9, 0xbd2516c2, 0x3dccda21, 0xbdb75dc2, 0xbbe9111b, 0xbe8519a4, 0xbdb94787, 0xbd0d1d4f, 0x3d8eab84, 0xbd005c14, 0x3e16b1f8, 0x3e034a23, 0x3db131b7, 0x3ded4ea5, 0xbd346a08, 0x3dbeeb9f, 0x3e12bc37, 0x3c1405c3, 0xbb92b014, 0x3d56f162, 0x3b19997f, 0x3dac9692, 0x3d843cc7, 0xbcbb6d97, 0xbdaeaa67, 0xbe5cd2b6, 0xbe797ebc, 0x3d21e1cd, 0x3dc7dc51, 0xbf288d6b, 0xbe968354, 0x3d9745be, 0x3dd050d9, 0xbe6c1c7c, 0xbd942d82, 0x3e16ea32, 0xbe0dfe32, 0x3e2f8a9e, 0x3e4eda39, 0x3d0a80bc, 0xbbba7760, 0xbe924c55, 0xbe14308a, 0xbd1cbd28, 0x3da90d5d, 0xbe612f63, 0xbc8b55e7, 0xbe682477, 0xbe29a4ff, 0x3b356048, 0x3da2a3ab, 0xbd85461c, 0xbda97c9b, 0x3d75b6df, 0x3df25a14, 0x3da80279, 0x3bdbcaf5, 0xbe4eb852, 0xbe241ec1, 0x3d7b7dd1, 0x3e2036b7, 0x3e0797d1, 0x3dc815a5, 0x3ca7cc41, 0xbc3a7881, 0xbda00cfc, 0x3d936b17, 0x3e0ca6ef, 0xbcd89e61, 0xbdb38f4a, 0xbe53e3a3, 0x3ce2b1e3, 0xbca7830a, 0x3d65c7d7, 0x3d39f6b1, 0x3d5e2f04, 0x3dc5afb4, 0xbea37b73, 0xbc0975bd, 0x3e32bb7f, 0x3e0314dd, 0xbd163ebb, 0xbd831a29, 0xbdec785e, 0xbe25f74f, 0xbe081d23, 0xbc493c3b, 0xbdeecce5, 0xbdbe23c2, 0xbea8d452, 0xbda280dc, 0xbdc6edc2, 0xbd911907, 0xbe80c1d4, 0x3d1012e9, 0x3b91132a, 0xbcc2e9b2, 0x3d2b4711, 0x3e34eba4, 0x3e131592, 0x3de43154, 0xbe68792a, 0xbc328567, 0xbba0dbf7, 0x3ca7bfed, 0xbd8828fc, 0xbda909e1, 0x3cd582ec, 0x3d8f4a9e, 0x3bade7f9, 0xbd756bf4, 0x3daec9c9, 0xbd8971dd, 0xbea3a8f8, 0xbe7efd69, 0x3c559d03, 0x3de15945, 0xbd3a82e0, 0xbe56dad5, 0xbda28ddc, 0xbe2456ef, 0xbe1f2f76, 0xbd5e34b6, 0xbe3a0c7a, 0x3ceb7a5f, 0xbdc4b455, 0xbc0ad154, 0x3d86edf6, 0x3e2fb608, 0x3d5d0da0, 0x3d135072, 0x3dee6db9, 0x3dbdc51c, 0xbe0b72b9, 0xbdeafd00, 0xbe0bd5f4, 0x3db84256, 0xbd6c868f, 0xbd3a59fb, 0xbd627146, 0x3da52a12, 0xbdb5b859, 0x3d2189eb, 0x3d263c58, 0x3e0317fb, 0x3da91492, 0x3e177302, 0x3dd3b513, 0x3d6dd757, 0xbc8d22bf, 0xbc559d45, 0x3e0a94ba, 0x3d98f690, 0xbe914682, 0xbea4ce2c, 0xbdf71382, 0xbd9397df, 0xbe5f8d01, 0xbe413f6a, 0xbd858784, 0xbe315305, 0x3db46576, 0x3d0f3630, 0x3d098615, 0xbaf84100, 0x3ddbf5e5, 0x3d6e238c, 0x3e029a7b, 0x3cb89d05, 0xbec03d4e, 0xbea70131, 0xbe1233d0, 0xbdbac807, 0xbe89aff3, 0x3de08ec7, 0xbd207e80, 0x3cfb771b, 0xbd32b0b6, 0x3e11e131, 0x3e14195a, 0x3e108d94, 0xbe02486c, 0x3c2583d2, 0xbcb85335, 0xbdb9b3b9, 0x3da7088e, 0x3e4cb037, 0xbc74d4c6, 0xbb308a5b, 0x3d3fee29, 0xbda335ea, 0xbe1845eb, 0xbe781367, 0x3e188fd1, 0xbb99303c, 0xbd193702, 0x3d8565a1, 0x3e276625, 0x3da67d31, 0xbd8a850f, 0x3d382b00, 0x3d38f09c, 0x3e04bddb, 0x3e626a82, 0x3e99bf4a, 0xbdc4cd7a, 0xbd05830a, 0xbd0dacad, 0x3cd10338, 0xbe448374, 0xbdfb924b, 0xbdd26afb, 0xbea95dcf, 0x3e0a9b6c, 0x3c90af10, 0x3bb1f86c, 0xbcdda45f, 0xbd456c5d, 0x3e54acdd, 0x3e3dcecd, 0x3e683dbb, 0xbd01eca2, 0x3d5de76c, 0x3de3ef07, 0xbe6e0049, 0x3e13dac5, 0xbd7674b5, 0x3a003e1e, 0xbce0aa32, 0x3dad9afb, 0x3c415415, 0xbcf83a84, 0xbcbf6f0e, 0x3e2e8184, 0x3e5713c5, 0x3e256a04, 0xbca9c9e7, 0x3d283b14, 0x3de84524, 0xbdbe81e9, 0xbdcf372b, 0x3d8e7262, 0x3d9022b9, 0x3c4904f4, 0x3e1bac29, 0x3cda7393, 0x3e169d26, 0x3cd5e3c2, 0x3d8b4cd3, 0xbcde84b6, 0x3e3a6d53, 0x3e357aec, 0x3d6d2069, 0x3e033200, 0x3dca52d5, 0x3d1c050d, 0xbd06a2b6, 0x3d369edc, 0x3c21314c, 0xbdada0c5, 0x3d578295, 0x3c3dd6f0, 0x3d3657be, 0x3dc75ec9, 0xbdb35bbf, 0xbe15ee70, 0xbe1e7815, 0xbd1dee8b, 0x3de9b9cf, 0xbf058685, 0xbe5eb0bc, 0xbd2cfb18, 0xbd8096c0, 0xbe317313, 0x3d01a37c, 0x3d1bc39d, 0xbe7b45e6, 0x3c290c2e, 0x3e1b0758, 0x3e055519, 0x3b7bac29, 0x3e189d98, 0xbe02f79d, 0xbd46dee7, 0xbdce106d, 0x3e35c112, 0x3d378a09, 0xbc836fbf, 0xbe1b23a5, 0x3b1110d1, 0x3da28c13, 0xbdb0979e, 0x3d5c3535, 0x3c8f0656, 0x3d1330e4, 0x3bf782b7, 0x3e106d3f, 0xbc507487, 0x3b791693, 0x3dda45af, 0x3e16711e, 0xbc725e5c, 0x3d232692, 0xbd4ecbe8, 0x3d7bebfe, 0x3deec74f, 0x3d19f292, 0x3d81aabf, 0x3e265706, 0xbda5229b, 0xbe2b0867, 0xbdc262e6, 0xbe33f77b, 0xbe3939b7, 0xbd9ff6ea, 0xbcbc7621, 0x3c180114, 0xbcb89573, 0xbd912f12, 0x3d47a07c, 0xbc211d0e, 0x3db396b4, 0x3d24761a, 0x3e4c082d, 0xbd83da81, 0xbc1c4420, 0x3b003a48, 0xbd86d69f, 0x3c03589c, 0xbdf89509, 0xbe3009c6, 0xbcbfe012, 0x3e16413e, 0xbd8a3d15, 0x3dcc0c0a, 0xbc117498, 0x3d61e39f, 0x3e18cd50, 0xbd5d981f, 0xbe521bc0, 0xbd67e7ae, 0xbc891a97, 0x3e16265e, 0x3d80815d, 0xbe052e55, 0x3e12265c, 0x3e1b3b6c, 0x3d18ea8d, 0xbd156fdd, 0x3d124287, 0x3d2b3e15, 0x3e0dbde8, 0xbab12128, 0x3c88f412, 0x3d066491, 0x3db25c51, 0xbd09c93d, 0xbe8f6e58, 0xbe7a66fc, 0xbebba3e2, 0xbe13b7b9, 0xbda223b3, 0x3da19f5d, 0x3dc1b99d, 0xbb756ba0, 0x3e2a4ffd, 0xbd5d4df1, 0xbd333352, 0xbba3017c, 0xbdbc5222, 0x3e13642e, 0x3d45b22a, 0xbc868a31, 0xbd13a720, 0xbe1a40c3, 0xbe474698, 0xbea7bb27, 0xbd3f9928, 0xbd2f2d61, 0x3c6d7814, 0x3dc137c0, 0xbd505ca0, 0x3d71092c, 0x3dcc287a, 0x3d3ed84a, 0xbbf00d59, 0x3e035708, 0x3da0fd1a, 0x3b90a1aa, 0xbcb4c2d4, 0xbea85f90, 0xbe977f57, 0xbe71beca, 0xbd7b5344, 0xbdb28344, 0xbd4e7fa3, 0x3d3e8e70, 0xbccb64aa, 0xbd2180ea, 0xbd842692, 0xbc8ea1ce, 0x3d09fc33, 0xbcaf54ce, 0x3de3d715, 0x3d78e416, 0xbe9f620a, 0xbe6daacb, 0x3df1c24d, 0x3e57b695, 0x3d6549a3, 0xbe0e91cd, 0xbd2f9e00, 0xbe1a6ed9, 0xbccf5f6e, 0x3d91bf6c, 0xbbf96b3d, 0x3bc63ecf, 0x3df111a2, 0x3bfc18e7, 0x3d08359d, 0x3e7c8354, 0xbe0fe7a9, 0xbe282ef9, 0xbdb9518d, 0xbd9e2521, 0x3e5393c6, 0x3cf0aacd, 0xbd28299d, 0xbdda3bfc, 0x3d37d26d, 0x3e3bd536, 0x3d1d2769, 0x3de3ae30, 0xbd2a7d2c, 0x3bf5a249, 0xbb7d79a7, 0x3d20ede8, 0xbe8548d2, 0xbe94a32d, 0xbe286618, 0xbe39e221, 0x3dc13db8, 0x3ce97fba, 0xbdbed4cc, 0xbe1045de, 0x3d560320, 0x3cbbbc01, 0xbce4133a, 0xbde3ead2, 0xbdd22b2b, 0xbd44c1dc, 0x3d8835d7, 0xbda2c1a5, 0xbd4cb303, 0x3d87db98, 0xbe1ecf1e, 0xbea2a301, 0xbe1fa2f5, 0xbc852e14, 0xbdb327a4, 0x3e096a1e, 0x3d8d1afb, 0xbc6d9ab3, 0x3c7d403a, 0xbdafc3cf, 0x3c931d0c, 0x3e10914d, 0x3e147ba8, 0xbd4d72a6, 0x3e0973f9, 0x3e3fe76e, 0xbd068e20, 0x3d5ff575, 0xbd893bc8, 0x3d84fcfb, 0xbdd29921, 0x3dd54a12, 0x3d42d55e, 0x392783d5, 0xbda956ca, 0xbd659256, 0xbd6f64a0, 0xbd812a7d, 0x3beb8c4b, 0xbbe042b4, 0x3e13dec4, 0x3d94eb74, 0xbd05d76c, 0xbe8412f9, 0xbd363193, 0x3de17c2a, 0xbdaeac4e, 0xbd1867a7, 0x3e0261f7, 0x3e3502e1, 0xbdc66b14, 0x3c772873, 0x3dd36d05, 0x3d5cae1a, 0xbcaf5e1c, 0x3c0c39a8, 0xbe362b05, 0x3d01f1ef, 0x3dde9bcf, 0xbd78fd25, 0x3d08439d, 0x3df95837, 0x3e0b8622, 0xbd7b305f, 0x3d996bbb, 0x3d677209, 0x3d9f6c2a, 0xbc85e400, 0xbca33bff, 0xbc118d75, 0x3e116adf, 0xbe0d5ea7, 0x3dae32c5, 0x3e017972, 0x3e4e94a6, 0xbe0065c5, 0x3c89aa6b, 0xbe003df9, 0xbce43e49, 0xbd325e50, 0xbd4ec6c9, 0x3db3a31a, 0x3cb90283, 0xbde1cf52, 0x3db8bb4e, 0x3dd6c9fa, 0x3e51ff35, 0x37758265, 0x3d1c4f62, 0x3df65f14, 0x3dacc8c0, 0x3e2126a4, 0xbe1d1d1c, 0xbd97d850, 0xbe4d9b68, 0xbdd7b951, 0x3c9862e9, 0x3ddf340d, 0x3c255527, 0x3c4c3794, 0xbe056c79, 0xbd136914, 0x3ccc3313, 0xbd7af71a, 0xbd250e1f, 0xbcedd0f4, 0xbd28675a, 0xbe827923, 0xbe299b05, 0xbe0b7233, 0xbdc5c315, 0x3d5ffaf5, 0xbe20cbb0, 0x3ccea82e, 0x3cd57fcd, 0xbde8064b, 0x3d825c23, 0x3d34ed18, 0xbe2b36f0, 0xbe25112b, 0x3cf5e5a4, 0xbd67717f, 0xbd5bdeb1, 0x3d3a6f5b, 0xbe1c1c0b, 0xbdc7818c, 0x3e150d77, 0x3e3f179e, 0xbd14bcf7, 0x3c4725dd, 0x3e4ca079, 0xbdf2e47f, 0x3c2ac815, 0x3d6661af, 0xbdab9944, 0xbdcbf75c, 0xbd88652b, 0xbd31584b, 0x3dcc805f, 0x3d08052b, 0x3e58daec, 0x3d27ccd2, 0xbe338f0b, 0x3def2d5b, 0x3e14ea2a, 0xbe676660, 0xb8dcbf75, 0x3e0f65e2, 0xbde20d55, 0xbd8d811c, 0x3dc82e2d, 0x3d25ae93, 0x3cded6e4, 0x3ba1dcae, 0x3c8de649, 0x3c7b25c7, 0xbba045f3, 0xbe31621f, 0xbd4d7eaf, 0xbe28b632, 0xbd88bb9b, 0xbe7ce49c, 0xbdbd9b9e, 0xbcfce1c7, 0x3e73640d, 0xbd7978db, 0xbd6a32e7, 0xbc7a0d36, 0xbd3de23d, 0x3d158163, 0x3ced5e23, 0xbdcd1060, 0xbe1631d9, 0xbdc4f565, 0xbd738470, 0x3daa058d, 0x3c85c8db, 0xbcd4cbd3, 0xbde72c6b, 0xbe293059, 0x3dba87cb, 0x3c1945e7, 0xbcbd7c37, 0xbc9b7a38, 0x3c7cd367, 0x3d15db3b, 0x3d128383, 0xbcb7d840, 0xbe4186a8, 0xbd8410f9, 0xbdc2c505, 0xbdb6b449, 0x3da98aee, 0xbd33baf0, 0xbdf5069c, 0xbd403f82, 0x3ce0485d, 0xbcec4f0a, 0x3d000486, 0x3cb06a53, 0xbe1ce96a, 0xbd26e488, 0xbc95ac49, 0xbe4211de, 0x3d9eab98, 0xbe42c39b, 0xbd64cfc8, 0x3cd3d7e8, 0xbb4d0d83, 0xbe6864e0, 0x3e3a20c3, 0x3c5dccb5, 0xbe4beeab, 0xbd2ab441, 0x3cbad942, 0xbb98b565, 0xbe0b371b, 0x3d5c8248, 0xbae9a902, 0xbe056a17, 0xbe335d20, 0xbe679d2e, 0xbe459f81, 0x3d3a5157, 0xbda9315c, 0xbe10b1b6, 0xbd9264bd, 0x3c8b584f, 0x3dcac0d0, 0xbddab965, 0xbe4feef0, 0xbe8bc8b9, 0xbcfb85b6, 0xbd3fb58f, 0x3d6724aa, 0x3d437cab, 0xba4df0b4, 0xbe5fae95, 0xbbd8503b, 0xbe513734, 0x3d4f1aab, 0xbe120b84, 0xbd22d07d, 0xbe51c262, 0x3e66058d, 0xbdfcc811, 0xbdc465b5, 0xbd29e75f, 0x3db9b937, 0xbd807b1b, 0xbd8fda0a, 0xbd93c66d, 0xbc896f90, 0xbd8ee269, 0x3d2de847, 0xbd48c20a, 0xbd7f8815, 0x3d445ef8, 0x3dd371f3, 0xbe145547, 0xbd40dcf5, 0xbd7f65f5, 0x3d1f73c8, 0xbc50234a, 0x3d9b6b33, 0x3c8088ad, 0x3adbaea2, 0xbdfcb525, 0xbe52c1d0, 0xbe015c2a, 0x3e3fe958, 0x3e815608, 0xbe3cbc11, 0x3e14eb9f, 0x3e4660ec, 0xbddedd5d, 0xbe100540, 0xbd0c7030, 0x3d9a3d8b, 0xbe56096a, 0xbc5e5c86, 0xbd3bcca5, 0xbe16e3af, 0x3b7d1cc9, 0xba80593b, 0x3ca3e42e, 0x3dfb61a0, 0x3de9ddd7, 0xbe641f8c, 0x3dde06a7, 0x3e46469a, 0xbdd5edb7, 0xbd8c9a94, 0xbce32182, 0xbdc36f7a, 0x3d95a189, 0xbcbcf9d7, 0x3bed62bf, 0xbe3bd5a8, 0x3d8c2a98, 0x3dcccde7, 0x3dbc2bd6, 0x3dafc562, 0x3ce165fb, 0x3d8ca4b5, 0xbb3801ec, 0xbcc94896, 0xbb15be79, 0x3daaa08b, 0xbdafaa65, 0xbc9910a1, 0x3d47a185, 0xbd98dca2, 0xbd1ed028, 0x3d7a99bb, 0xbcda72b4, 0xbe91ab6e, 0x3dadce3f, 0x3dfffa1f, 0xbd98d90c, 0xbe9d4a6c, 0x3df81eda, 0x3d1c54e3, 0x3cfad1ad, 0xbe899a05, 0xbd946f1a, 0xbdcf89dd, 0x3d4f6893, 0xbdd27373, 0x3d5b6435, 0xbe293aa9, 0xbb0df52c, 0xbe6061c3, 0xbe8715b6, 0xbe023a3c, 0x3de2a467, 0xbdec4346, 0xbe2c5ae0, 0x3d4a1767, 0x3dd79a41, 0xbda8a795, 0xbc4275fb, 0xbe1d7f46, 0xbe3cf5e1, 0x3d15345a, 0xbcecee7e, 0x3cf4bdb0, 0x3c8010cc, 0xbe2f895f, 0xbd6ba6d4, 0xbdb2c825, 0x3d22e8e3, 0x3d2bd069, 0x3d869ca4, 0x3d9c7028, 0x3db3619e, 0x3d60f251, 0xbd855411, 0x3d868284, 0x3dac2057, 0xbdaff9c6, 0xbdfaed54, 0xbdb2aed0, 0xbe677739, 0xbdccafe0, 0xbdac5fd9, 0x3df1f0d5, 0x3d771fd9, 0xbcaf8027, 0x3dc1afb2, 0xbc4c01b6, 0xb7f3bbaa, 0xbd9e1806, 0xbd4dae95, 0xbdf5c5fc, 0xbccca8ac, 0xbdbed27e, 0xbc9f2bee, 0x3d65fce8, 0x3d55904b, 0x3d926f01, 0xbd3a0da3, 0x3d2a9108, 0x3e2bedfc, 0xbdb76fc3, 0x3ca07bd6, 0x3d5fd1f9, 0x3e1a1a21, 0xbd19cae2, 0xbdc5c98d, 0xbe4b43d3, 0xbe8bb288, 0xbe3d243c, 0xbd9939cc, 0xbe052d9a, 0xbd69e9bc, 0xbcd7d9ed, 0x3cba9eae, 0x3e012682, 0x3e3c7505, 0x3e066c63, 0xbd4fe7fd, 0xbde8a914, 0xbcb04a67, 0xbcefaf4e, 0xbc135d6d, 0x3bdf4022, 0xbde37708, 0xbcdfe0bc, 0x3d989e7e, 0xbd9a1814, 0x3b247d2a, 0xbaaa636f, 0xbd9207f0, 0x3da3e64e, 0xbc3de888, 0x3d9298b5, 0x3cfcccc0, 0x3d5b579f, 0xbbbb2e80, 0x3c21378f, 0x3dbec8ef, 0x3d964667, 0x3dc4d877, 0x3daefcae, 0xbd0fe2e6, 0x3dbd5036, 0xbcb10f87, 0xbd83337f, 0xbdbe0425, 0x3ba75f77, 0x3d18d6cf, 0x3c35d5d1, 0x3d709aa7, 0x3badf155, 0x3c9efbd1, 0x3d3717a5, 0x3b655465, 0xbd49c1d6, 0xbd870459, 0x3c3111cd, 0xbce1c848, 0x3ddf67b8, 0x3c958925, 0xbd1ad94e, 0xbd387541, 0xbb9e0cb8, 0x3e026afd, 0xbc3143e7, 0x3c9db556, 0x3c598cf5, 0x3e03dc7b, 0xbca4dfb8, 0xbdf25a26, 0x3d8a1b6a, 0x3b8551a4, 0xbc448698, 0x3dae2c31, 0x3dfc7011, 0xbd986fd0, 0x3e0a561c, 0x3dcb597d, 0x3d70341b, 0xbdb48683, 0x3db14b4d, 0x3d220f62, 0xbc9c4806, 0xbe0e334b, 0x3ba3da1b, 0x3da7b87e, 0xbd896519, 0xbd98097a, 0x3db3a9fc, 0x3e7f735a, 0x3d80bd60, 0xbe4690b1, 0xbda054ce, 0xbdfea9ec, 0x3daf8298, 0x3e24c84a, 0xbd1a1273, 0xbd3fecc9, 0x3dd60cdf, 0x3dc2beb1, 0xbdc5a729, 0xbd8bf6e0, 0x3e009529, 0xbe39d406, 0xbdf7e7f2, 0xbd08670a, 0xbd38ef13, 0x3bdd83c3, 0x3ca399a2, 0xbd959078, 0xbe281cfc, 0x3ce45084, 0x3e5dc521, 0x3c9a6cd9, 0xbd1ee900, 0xbb839b4a, 0x3d783c26, 0x3c1e402a, 0x3de06fe9, 0x3dd6b18d, 0xbd206e3b, 0x3d229c58, 0x3e18b201, 0x3dc8a24c, 0x3d6d83e9, 0xbe0181f3, 0xbe1d5b21, 0xbddbaacd, 0x3de8436b, 0x3d1b4c2e, 0xbe26fd12, 0xbe0863c4, 0x3e746610, 0x3e0d4f04, 0x3cf286a6, 0xbc058a08, 0x3de74bee, 0x3e14f5ad, 0x3d8ce042, 0x3dca4332, 0x3d162a44, 0xbde4e88a, 0x3e14129f, 0x3cb419be, 0x3c5f27a0, 0xbdc3844f, 0x3d3ccdb6, 0xbb95d809, 0x3b69c336, 0xbd62ee0b, 0xbcb8408c, 0xbe1a8f42, 0x3cf03ef7, 0xbe8628a6, 0xbdfaf95e, 0x3d65da03, 0xbc0ddebe, 0x3b2d238b, 0x3cb74164, 0x3be5fef8, 0xbdb22291, 0xbc5c08f6, 0xbc4bfdd5, 0xbdb91612, 0x3da558e4, 0x3d762798, 0xbde1c34a, 0xbde23d1c, 0xbd8bacbb, 0xbdf52980, 0xbda2fb66, 0x3d54206f, 0x3e17bc1c, 0x3c97b9b9, 0xbe02f51d, 0xbdaa5da3, 0xbb8f8e51, 0xbdaaa1dd, 0x3cc4c106, 0xbdf7bc3b, 0xbe0a02e6, 0x3d414a51, 0xbce6addb, 0xbd990b40, 0xbd7408fa, 0x3d7ccc93, 0x3da8e721, 0x3d9924e0, 0x3d825db1, 0x3dede593, 0xbe2e4f00, 0x3d2942b1, 0xbcb3f71e, 0x3d46dcce, 0xbe6ccf41, 0xbdbb1bbc, 0x3d4046b7, 0x3dcdb4bb, 0xbe802344, 0x3cea4c8f, 0x3c817bcb, 0xbda93bbb, 0xbe24397f, 0x3e7e1758, 0xbdd7176d, 0x3c3845e1, 0x3cfc0b30, 0x3e513e34, 0xbd44acbf, 0xbe3dd494, 0x3c9b41f6, 0x3e949cd1, 0x3cc3cf67, 0xbd9fef3e, 0xbcfab7dc, 0xbcd25a49, 0xbd423816, 0xbe136ade, 0xbd7208cd, 0xbe24b54c, 0xbcb0b9a3, 0x3dc10ba0, 0x3e50083b, 0x3e508e15, 0xbea3468f, 0xbe1a3e7c, 0x3c81a69e, 0xbd31e3a8, 0xbe7c5f15, 0xbd92be3d, 0x3def63f5, 0xbae582a9, 0xbb711baf, 0x3d0af848, 0xbd70a0cf, 0xbe07fa1e, 0x3dd489a9, 0x3da6f83e, 0xbb98d237, 0xbe283d2a, 0x3dc37655, 0xbda242e4, 0xbe7ad66a, 0xbe45d649, 0x3d0eaaa4, 0xbe6ba9ff, 0xbe6cd13e, 0x3deb056e, 0xbcdb0d23, 0x3d089da2, 0x3e20305b, 0x3e115782, 0x3dbbbd80, 0xbcf05722, 0x3d9d9e0b, 0x3db40409, 0xbc3cd34e, 0x3e0b9fde, 0x3e613867, 0xbcf67e10, 0xbdae5718, 0x3daad210, 0x3dc3e6c3, 0x3dbde4e2, 0xbd19b06e, 0x3d14c5cf, 0x3d1bb8a1, 0x3d0a9106, 0xbdb3fbf8, 0x3d8a1e73, 0x3d9c6e28, 0x3e1fe87c, 0xbd5fab49, 0xbd74b764, 0x3e25de4a, 0xbc9fffbd, 0x3e0e58a7, 0xbcd48a16, 0xbdc052b7, 0xbdba2bb2, 0x3d913cee, 0xbe2f04e9, 0xbc951e4f, 0x3d8c5522, 0x3ea11d9c, 0x3e1cd167, 0x3de25a7c, 0xbd10b848, 0xbd5ca424, 0xbe1b1b2c, 0xbe1362e1, 0x3dac3b4e, 0xbcd96d43, 0xbdcbcb29, 0xbe0bd721, 0x3d2caad4, 0xbcb30106, 0xbd871aa3, 0xbc0c4d20, 0xbdeb8739, 0x3de5f857, 0x3dec32c3, 0x3d9ded6e, 0x3da94501, 0xbdbbcabc, 0xbdbac646, 0xbe2a83fc, 0x3dc05b48, 0xbec9b97e, 0xbe6cc21e, 0x3c867fab, 0x3e36f93d, 0xbe4794e4, 0xbdff2d58, 0xbc94184f, 0x3d31a60f, 0x3ca032d3, 0xbce5247a, 0xbcce0996, 0x3d414422, 0xbd16f82d, 0xbe85f200, 0xbe9bb158, 0x3c7925d1, 0xbe31a169, 0xbd588ace, 0x3d5d3ec8, 0x3dce91a2, 0x3d7785a1, 0xbe286884, 0xbcfe43a8, 0x3d98ac39, 0xb7effa2f, 0x3c29db61, 0x3d4222a9, 0x3e9df152, 0x3e5cf2c7, 0xbd75ff82, 0x3d9207c3, 0x3d9dd7ef, 0x3d4ba158, 0x3de7a08e, 0x3d9a523b, 0xbd5da584, 0xbdf23d2a, 0xbbc3f7f1, 0x3e48c239, 0x3e49f275, 0xba4c2028, 0x3d61aa43, 0xbaf6368c, 0x3d446922, 0xbb9f2214, 0x3be92f78, 0xbca8a8d3, 0xbd58fece, 0xbdbf7895, 0xbe80473f, 0xbd88a25e, 0xbda26c20, 0xbdb852c5, 0x3db54235, 0x3dadca2b, 0x3e4b9c3e, 0x3e55f3ac, 0xbb9d87e7, 0x3d8d5446, 0x3db6e39c, 0x3dc821a0, 0xbe27c760, 0x3c8fd5aa, 0x3d322ce7, 0xbbd7f7af, 0xbd770ad4, 0xbe087045, 0xbbd7977a, 0xbd63552b, 0xbcd33e9d, 0xbd091309, 0xbe456d13, 0x3dd75445, 0x3e00b955, 0xbbd155dc, 0x3d84292a, 0x3e01c354, 0x3d2d5a00, 0xbd889464, 0x3db9c9fa, 0x3e1c2fec, 0xbb827b96, 0xbb86f841, 0x3e017a2d, 0xbb960df5, 0x3dbf9f6b, 0xbd8a1187, 0xbe14d5b8, 0xbda054e5, 0xbdbe7ad7, 0x3e6dbaa1, 0x3e735ffb, 0xbdeb7518, 0x3d417596, 0x3e25ae3f, 0x3d49c131, 0xbe1be135, 0x3ba5b572, 0x3dc2a391, 0xbc367ba7, 0x3d1016f8, 0x3c995ff0, 0x3d6736c8, 0xbb4c97e3, 0x3c004346, 0x3e0d0741, 0x3d678de8, 0xbc19402e, 0x3e127a43, 0x3e10c8e3, 0x3cf8d821, 0x3d80aa01, 0x3db688e8, 0xbd95d044, 0x3d894fe1, 0x3ea8584e, 0xbd833a3f, 0x3da03986, 0x3dac4a51, 0xbcee8701, 0xbde36041, 0x3e5c8d4b, 0x3de44b45, 0xbd319ec8, 0x3da26cb3, 0x3ec8b98e, 0xb9a40f7e, 0x3c82faeb, 0x3e909e11, 0x3e801b7f, 0x3dbd734b, 0x3d8679b3, 0x3bdf75d9, 0xbd6d44e8, 0x3d4ec8d3, 0x3d56d1f5, 0xbdf04cde, 0x3d083cc2, 0x3cfb7cef, 0x3c9b08db, 0xbc0cd56d, 0x3e260008, 0x3e98124c, 0x3e655386, 0xbccb29f6, 0x3dfb8865, 0x3e02567b, 0x3d9dc102, 0x3d758062, 0x3e5594e3, 0x3cbd741e, 0xbdebb197, 0xbdd3c94e, 0xbd88048d, 0x3cfeaae1, 0xbd85d2e9, 0xbca8a1ac, 0x3d377ee5, 0xbd16c3f0, 0xbe4c1332, 0xbde70267, 0xbe39db24, 0xbe08af2a, 0xbde9fc7f, 0xbe222ef5, 0xbdea951c, 0x3db734fc, 0x3e21e384, 0xbd850dab, 0xbd0990f9, 0x3d0b7dde, 0xbda41e97, 0x3e04905c, 0xbbacc673, 0xbd407afa, 0x3dc6850b, 0x3eaad1a8, 0x3d8fae36, 0x3da8c5cd, 0x3ce1823e, 0x3d60c5aa, 0xbd8538a6, 0xbe1d5256, 0xbe14bde8, 0x3e1e46e5, 0x3d420970, 0x3df1ed27, 0x3e6af2d7, 0x3d53b715, 0x3e162fc3, 0x3e5fb70d, 0x3e2890d2, 0xbc877ae3, 0xbb597537, 0x3dcc29b8, 0xbe16b5d3, 0xbd84c434, 0xbdf0436d, 0x3be64845, 0xbd801ec6, 0x3ce35bdb, 0x3c06d136, 0x3dca4187, 0x3e15bada, 0xbe34240e, 0xbd83edba, 0x3c88ab06, 0x3e1a65e4, 0xbe827373, 0xbe23cf01, 0xbdf2ee4a, 0xbe671418, 0xbbe3a47f, 0xbdc05783, 0x3ca528e0, 0xbe024332, 0xbe04dc54, 0xbd32dedf, 0xbd9ce56a, 0x3d944857, 0xbd3ff087, 0xbe05e367, 0xbda5bea5, 0xbcbba6b7, 0xbe183fbd, 0x3dc817b1, 0x3dabc097, 0xbd793fd2, 0xbd2a5313, 0x3dbd2dee, 0xbd473949, 0xbd2cb427, 0xbd0d0719, 0xbd891c2d, 0x3a7ba108, 0xbb925692, 0x3ceec177, 0xbcf522f9, 0x3db18107, 0xbb760b06, 0xbd2ec428, 0xbd1800ca, 0x3dda0369, 0x3dcbe658, 0xbb44378d, 0xbc907de6, 0x3d80c333, 0xbd497edd, 0xbccc22dc, 0x3d87d400, 0xbd6ed977, 0x3b023197, 0xbe34b5c1, 0xbdf3ad49, 0xba85624b, 0xbd0cc6b8, 0x3e1f3629, 0xbd10a715, 0xbddbabbd, 0xbe33cd11, 0x3e667244, 0x3e7dbc4e, 0x3dd208bc, 0x3d1d10f2, 0x3d990837, 0x3db7bc8a, 0x3dca0dda, 0xbb2bcf0a, 0xbdd06d30, 0x3e138490, 0x3dba6d60, 0x3a9c9713, 0x3c5a3c07, 0x3e0ee45a, 0x3ddb2c59, 0xbe09978b, 0x3c821a6e, 0x3da67684, 0x3e0ce789, 0xbe14cc91, 0x3d22a0fb, 0x3dbcb7a8, 0x3e189738, 0xbd9d30bc, 0xbd8929eb, 0x3caa75d0, 0x3d58175f, 0x3d51795e, 0xbe2c4d5b, 0xbd713f52, 0x3dd86116, 0xbb718e6d, 0xbe5c2fb8, 0xbdba2882, 0xbdcbde85, 0xbdbb1ea2, 0x3c5aef4b, 0xbc057df4, 0x3cd67bde, 0xbce1ea3c, 0xbd3a6746, 0x3d295499, 0x3dda975b, 0x3e2e45df, 0x3de75cd0, 0x3d57efdb, 0x3e060256, 0xbe2b1ba9, 0x3d300b0e, 0xbd0e4a19, 0xbe1ba843, 0xbe0205cc, 0xbd02ec49, 0x3c1a6427, 0x3d85af03, 0x3c12357c, 0x3d59ba7f, 0x3da10200, 0xbd12c43b, 0x3cfa5e2b, 0xbb793c35, 0xbcb22bfd, 0x3d958d7c, 0x3db3c41d, 0x3d355146, 0xbc93cb5a, 0xbce660a0, 0x3b97d279, 0xbc697e3a, 0xbd8e0541, 0x3db84f8f, 0xbdfb9326, 0xbde41f7d, 0xbdc6f80d, 0xbd24ed77, 0xbe6a5069, 0xbe1d6284, 0xbd4fae0c, 0xbd972b63, 0xbc73d69e, 0xbe03557b, 0x3d4e50a6, 0x3ddd3bc6, 0x3e5e7ae4, 0x3cacf7ab, 0xbc7ee661, 0xbc93180d, 0xb9b72fec, 0x3d268da7, 0x3bd725cf, 0xbd6b74f3, 0x3ca35acc, 0x3db57862, 0xbda5a5ae, 0x3cc26cfd, 0xba5d6be0, 0x3e1a9d95, 0x3e03e3f0, 0x3dc21f04, 0xbc2b9029, 0xbd76374d, 0xbe115e95, 0xbc0a0b55, 0xbcf5bec5, 0xbe07d369, 0x3d0268a1, 0xbd07cb65, 0x3cc2b219, 0xbd8e6540, 0x3a8f6395, 0xbe22fbf0, 0xbdfc6f6c, 0xbdf97988, 0x3d75a314, 0x3cfbfae9, 0x3e0025e4, 0xbca89b66, 0x3c966da2, 0xbd84c667, 0x3de14fa1, 0xbdd6088a, 0xbe52ede5, 0xbd19b186, 0x3d5cc7c1, 0xbd8b184a, 0xbe03a728, 0xbdacbe29, 0xbd6da91a, 0xbe3e1bb6, 0xbd3cdf17, 0x3d13b595, 0x3e1ac46f, 0xbda12624, 0xbd7a327b, 0xbe2e88fe, 0x3c9820d1, 0xbd015f05, 0x3d871ae5, 0xbe4919aa, 0xbdda4de2, 0xbddacea5, 0x3d87f004, 0x3cdc294b, 0xbdb0a7f4, 0xbdf50b20, 0xbcef49b3, 0x3d48d68f, 0x3e02badc, 0xbccf465d, 0x3d560719, 0x3d94670a, 0x3ddfc7b1, 0x3d8f1ae6, 0x3c90be0b, 0x3de818d5, 0x3e2e72db, 0x3db2f811, 0x3d99ba39, 0x3dc5a16e, 0xbe5559dd, 0x3e336901, 0xbd841bcf, 0xbdbb38e6, 0xbe8e36df, 0xbe7aa721, 0xbd9c9ee9, 0x3daf760d, 0x3e54aa95, 0xbe9b0459, 0xbde856dc, 0xbd4ef133, 0x3ccb94b8, 0xbe855730, 0xbdb0567f, 0xbcb11c74, 0xbe1e65ec, 0x3e48c32e, 0x3e13f426, 0x3e5adedf, 0xbc421c76, 0xbceb4521, 0xbcada1b3, 0xbd622b50, 0xbe127857, 0xbda84388, 0xbd1d3039, 0xbe00b905, 0xbe7fae1e, 0xbdfa9617, 0xbd9820b5, 0x3daa0bb9, 0x3dfff5c2, 0x3cf2c7b4, 0x3da4b8bc, 0x3e2b477e, 0x3e0a5063, 0x3babb1c1, 0x3d79d98f, 0xbcfcccfc, 0xbe8f251e, 0x3dc6ae3c, 0x3d9ebd55, 0xbca42eb5, 0x3d9821aa, 0xbdcb2e22, 0xbd0464b5, 0x3ba9d406, 0x3d812643, 0xbe3bf029, 0xbe0c8016, 0xbdbf85f0, 0xbacd0cca, 0x3e3fab78, 0x3dd0ddaf, 0x3e03aea5, 0xbd40c6c4, 0x3c64b413, 0xbd438ab2, 0x3db220e6, 0xbe82986c, 0xbd4065d1, 0xbe366585, 0x3ba53601, 0x3cb4817c, 0xbe140071, 0xbe30fc9f, 0xbce349d3, 0x3a963c10, 0xbe2bc7ba, 0xbd34c8ed, 0x3c01f2a7, 0x3c93c000, 0xbe187d9a, 0x3c8b5935, 0x3d33a975, 0x3ded0cc0, 0x3e037e07, 0x3dc7f8df, 0x3a3e75bc, 0xbdcb0888, 0xbd83b234, 0x3e1adbf1, 0x3cb0e97c, 0xbcc9da83, 0x3d67e3db, 0x3c58ecca, 0x3d4e8cba, 0xbd3125bb, 0xbe3924f4, 0x3d14a422, 0x3e69a4e6, 0x3e713a76, 0xbeb82c03, 0xbd9c29bb, 0x3d97c47f, 0x3dbf38eb, 0xbe61f350, 0xbe5c6ff9, 0xbc8310e6, 0xbd9cdd35, 0x3dafc5a6, 0xbcf51c8e, 0xbd5c4524, 0x3d479531, 0xbc1028ff, 0x3d7dcb55, 0x3de299d6, 0x3e21a93e, 0xbcab7694, 0xbd946080, 0xbd666116, 0xbdaaec3d, 0xbe8fddf1, 0xbd5e8415, 0xbc3cacb0, 0x3c595c0a, 0xbdd29f0a, 0xbd3d1ab3, 0xbdabe79a, 0xbe2623fc, 0xbd7fdeaf, 0x3c6bed67, 0xbe53273b, 0xbda8adb6, 0x3df24c91, 0x3e1a1c38, 0xbd89c5ca, 0xbad250ee, 0x3d123101, 0x3d90b72d, 0xbe0b43c9, 0xbd2eaec2, 0xbe657fa4, 0xbd64b841, 0x3d1857b5, 0xbdefbbb6, 0xbdd27a66, 0x3b610f1c, 0x3cb4dfda, 0xbc7131f8, 0xbd985ef8, 0x3d3d323b, 0x3df84725, 0x3d251fac, 0x3dfcc512, 0xbb4ea96d, 0xbbdf9800, 0x3d2c64fa, 0xbe20e7b0, 0xbda6fea4, 0xbcad35c4, 0x3cf32f82, 0xbec89b5b, 0xbe4f2ea7, 0x3b5f4f8c, 0x3e117780, 0xbc8fc358, 0x3c97470e, 0x3d85f8e6, 0xbd28d36c, 0x3c8702b7, 0x3dc20892, 0x3dc32e2c, 0x3a9ebdc9, 0xbe52e4fd, 0xbd8fef15, 0xbcb0022b, 0xbe0f4110, 0xbd8cb71e, 0xbe3049fa, 0x3cc60e73, 0x3e411b90, 0x3e0f9c8f, 0xbb8dbc99, 0xbbe444bf, 0x3e0d3ff0, 0x3dcf1a3c, 0xbd86d5ab, 0xbdd326b2, 0x3c728d39, 0x3bee003b, 0x3d24cbe7, 0xbd3fbd79, 0x3d592392, 0xbdcd432c, 0x3c9ae648, 0xbddb7e71, 0xbd037b6b, 0xbe258d35, 0xbd12e18a, 0xbddc8423, 0xbe627d1b, 0x3d1763aa, 0xbdd2f664, 0xbdd74ba5, 0x3d94bb42, 0x3c5109a4, 0x3e263aa3, 0xbdffed82, 0xbea3e483, 0x3d3d5abe, 0xbe0bbb4f, 0x3c8f204a, 0x3cbfce1b, 0xbd7c1ff0, 0xbc3809fd, 0x3d877baa, 0x3d82b9d8, 0x3bd81a3f, 0xbd5b157a, 0xbdd193de, 0xbbb29c7a, 0xbc0e58cb, 0xbd9f39b4, 0x3b91558f, 0xbe01cb4b, 0x3e1cc1e6, 0xbca208a4, 0xbd8f40c9, 0xbd128e22, 0x3e18d8c9, 0x38e6a202, 0xbd2a06a3, 0x3d09b6cb, 0x3e83bc50, 0xbe17057b, 0xbd617eb9, 0x3d1b8cad, 0x3d96eaeb, 0xbbfe30bc, 0xbdf03082, 0x3d7103f3, 0x3cb8eebf, 0xbe0c0de5, 0xbd201923, 0x3d858aec, 0x3e495814, 0x3c00ec78, 0xbe3d9147, 0xbda27090, 0x3dbdd16d, 0xbe3cd4e3, 0xbe77c7d4, 0xbdd9ad79, 0xbe499999, 0xbda69301, 0xbe11e730, 0x3c164100, 0xbd876f35, 0xbd6e01f4, 0xbb9e7af7, 0xbe62f280, 0xbeae362d, 0xbd985403, 0xbdbe406e, 0xbc6fac5a, 0x3ca5223a, 0x3dec1ba4, 0x3bf014b2, 0x3c0d9261, 0x3e0d9d12, 0x3e0f3197, 0xbd4ded60, 0x3d9cd93f, 0xbd81d0a4, 0x3d8326c3, 0x3d20d590, 0x3e1eb02a, 0x3c8f226f, 0xbd1c214c, 0xbd70bc3e, 0xbcc4441e, 0x3dc4579b, 0xbcead4b6, 0xbdba2def, 0xbdbc60a7, 0x3e24f964, 0x3dc0e759, 0x3dda12aa, 0x3de96d8b, 0x3e01f6a3, 0x3de3bf93, 0x3dd8ea22, 0x3d97d65d, 0x3df4ce13, 0x3dbdffa7, 0xbdad4bf7, 0xbda018ad, 0xbd846365, 0xbd199a71, 0xbcbe5aaa, 0xbe343123, 0xbd50c054, 0x3d0a67e0, 0x3d7c254b, 0x3e0368e6, 0x3b89ae22, 0x3defa936, 0x3d466870, 0xbdf3d43e, 0xbe4a939c, 0xbdc3dabc, 0xbd855afa, 0xbda49aac, 0xbc3be449, 0xbc2ce28b, 0x3ce6ab01, 0xbd9fb3d5, 0xbdce8161, 0xbe643375, 0xbe1fa251, 0xbdd88770, 0xbe19ff66, 0xbe15b802, 0x3e33315f, 0xbd5fff10, 0xbdf36d68, 0x3e16d87e, 0x3d6163bf, 0xbe245fe6, 0xbd4555c9, 0xbc4899da, 0x3db470ee, 0xbd41c7ec, 0x3dd4367d, 0x3d0ed642, 0x3d95c368, 0x3d45dd28, 0xbd118964, 0xbdc6993f, 0x3d1fda3e, 0x3d2a2d25, 0xbd7526e6, 0xbd97c06d, 0xbc96ce8c, 0x3da057a4, 0xbdb8dd74, 0xbe00752c, 0xbe128545, 0xbe2b8bd2, 0xbd06dbfb, 0x3db41440, 0x3dd4df01, 0x3d4a2ae7, 0xbc717d9b, 0xbc958cbd, 0xbcd9a6ba, 0xbe19bcdc, 0xbd8e6dd1, 0xbe2deb87, 0xbd193630, 0xbd062a0e, 0x3e3fe3c9, 0x3c98cdfc, 0xbd691e80, 0xbd84e8e1, 0xbd7f41d8, 0x3dbd1cba, 0x3e0d7c27, 0x3ca44d32, 0xbd2adc33, 0xbdc52794, 0xbe0c7c93, 0x3c8016c9, 0xbdb10824, 0x3d58951e, 0x3e0ffb18, 0xbd2c710d, 0x3d30888b, 0xbbda8496, 0xbd9a0d90, 0xbe14188a, 0xbe05b107, 0xbe702515, 0xbccf1c91, 0xbb4eb0d9, 0xbd84a6e6, 0xbdb7c709, 0x3c65e222, 0x3d798ac4, 0xbdb89a7d, 0x3d637c74, 0xbd249c12, 0xbe2610be, 0xbeb32d74, 0xbe7c144e, 0xbcfadd4f, 0x3d0fcd6e, 0x3d8d0e74, 0x3da50061, 0x3c658b92, 0xbca83c69, 0xbce1df20, 0x3d74d786, 0x3de07505, 0x3dcbb89e, 0x3c9e9128, 0xbe0de226, 0xbdfe99b0, 0xbd8738d7, 0xbd7a1931, 0x3ce93427, 0x3ba13aa7, 0xbdbb3c94, 0x3d2b2ef8, 0x3dc282cd, 0x3c6b5e4d, 0x3dd6a79c, 0xbc5b3177, 0xbdb2d711, 0x3d43aa1e, 0xbca8c775, 0xbd6203a0, 0x3ce339d1, 0x3d3066f7, 0x3d659245, 0xbe2a29b2, 0xbddf0ea5, 0xbd7edf72, 0xbdcfeb29, 0xbe100f25, 0xbdb0c06b, 0x3c3129c7, 0xbca1151f, 0xbcb056ca, 0xbce86073, 0xbdeb7f28, 0xbdf5cc79, 0xbdbddc33, 0xbdda1867, 0xbbc83dc8, 0xbc30a316, 0xbd59bd68, 0xbcd1297e, 0xbd862401, 0xbd651bac, 0xbd773ad6, 0x3ddc5b98, 0x3dab26fd, 0x3c893c48, 0xbd8732b7, 0x3e272278, 0x3c4201fd, 0xbd309eb0, 0xbdee51fb, 0xbd6197fb, 0x3de57307, 0x3e362ae2, 0xbd08ad5c, 0x3e06f21f, 0x3dba2fd6, 0xbce313c0, 0xbdf721f5, 0xbd1c8c7a, 0xbdb0821f, 0xbe10f10c, 0x3df106f9, 0x3d9aa81f, 0xbe0438f2, 0xbc8b3a6c, 0xbc1b1577, 0xbdbb3a00, 0xbde159d1, 0xbd14d09b, 0xbe119ae7, 0x3dae7f8b, 0xbc5be735, 0xba6e009d, 0xbdbf8321, 0xbe217476, 0x3be63dca, 0x3d011aab, 0x3ce5e4a9, 0xbc8cbf8d, 0x3d28b683, 0xbd8921eb, 0x3e4c60f4, 0x3ca77cdd, 0xbcec43f3, 0xbdaf43eb, 0xbd82eb32, 0xbccb7caf, 0x3cb95a4a, 0x3d064de8, 0xbe1459ea, 0xbe83612c, 0xbe1819a4, 0xbe2dc47f, 0x3bf8ff11, 0x3de08651, 0xbd9b47bf, 0x3dab5b8e, 0xbe127e81, 0xbcec7f72, 0xbda88362, 0x3daef6dd, 0xbe33f615, 0x3d62d069, 0x3d92c3e6, 0x3cd1eb5c, 0x3d04f726, 0x3d96e3d4, 0x3a803436, 0xbd15d64f, 0x3d63f026, 0xbc323dea, 0x3d92c215, 0x3e5c4fac, 0x3d416863, 0x3d9664b0, 0x3cdb2c03, 0xbdb9db83, 0x3d7c3f9d, 0xbda0a56f, 0xbdd62a7a, 0xbd847726, 0xbe2b0a15, 0xbe023b94, 0xbe20f802, 0xbde2d28f, 0x3d2e67d0, 0xbc73180f, 0xbe3818ad, 0xbe0a0ff6, 0x3c051006, 0xbd327bb9, 0xbe12b764, 0xbd8a7257, 0x3dfacd62, 0xbd45418b, 0xbaae0162, 0xbe0b4db6, 0x3d025637, 0xbdecbe8c, 0xbe20e8ab, 0xbbafa686, 0xbd14e779, 0xbbbcd235, 0x3e53ec2e, 0x3dd2af69, 0xbe0fc25b, 0x3d2d05b6, 0x3b7e2a15, 0xbe17e7c6, 0xbd874ad8, 0x3d84c172, 0x3d3669a4, 0xbde673c0, 0x3e31a37a, 0x3dd23b44, 0x3c9990cc, 0xbdf5c9bd, 0x3cf859c9, 0xbe2a9d80, 0xbe3cd1e6, 0xbdc44c45, 0xbe420d8d, 0xbe707c52, 0xbe43a64f, 0xbdc176ff, 0xbe063704, 0xbdc5f640, 0xbe06c053, 0xbe42081a, 0x3ccbb82e, 0x3dc4a4d4, 0xbc264905, 0xbe11e5c2, 0x3e1ee111, 0xbd3a3cf7, 0xbd825c51, 0xbd01f8b1, 0xbe212a39, 0xbcd00590, 0x3e1f7292, 0x3e0003af, 0xbe09ee15, 0xbd87e89a, 0xbca0db27, 0x3d6d0f66, 0xbe66def2, 0xbe1e6961, 0x3c5f907d, 0x3dc606f9, 0x3c2660e9, 0x3db90bbe, 0xbd5ae01a, 0x3c9a4dc9, 0x3dbc0acb, 0x3ded04a2, 0x3c06a73a, 0x3ce8e5e9, 0x3c1e089d, 0xbc46df15, 0x3d680cc2, 0x3daa29af, 0xbb15a5ab, 0x3d7a4833, 0xbd8da85c, 0xbd20908a, 0xbdfc4ac6, 0x3c5e57f1, 0x3d0d6a27, 0xbd2504b3, 0x3dd36f90, 0x3d40efe4, 0xbe1339eb, 0xbe5d2362, 0xbcb8d577, 0x3d0da88b, 0x3d00e720, 0xbccac737, 0x3cbaa30f, 0x3d6186e9, 0x3d1741ad, 0xbd54d545, 0xbdbcecca, 0x3e21c4b2, 0x3d824201, 0xbd98f64d, 0x3d8b8463, 0xbc01f4c2, 0x3b85dda6, 0xbe17b305, 0xbd6d6d16, 0x3e20b67b, 0x3d574af1, 0xbdd76745, 0xbb7ebd32, 0x3c0b2b26, 0xbdd4453a, 0xbe57d939, 0x3dc366a5, 0x3dac0bc2, 0xbbee163e, 0x3bf55b04, 0x3d5a5d2c, 0xbd0bb028, 0xbc9194de, 0xbb6e2195, 0x3e1b7d29, 0x3e16a775, 0xbe256971, 0xbca6f3eb, 0xbc8a2e96, 0x3e2b9ef4, 0x3db7cf4a, 0xbcf18a33, 0xbc425dbc, 0x3ce56423, 0x3d6be347, 0x3cc4c11c, 0xbd648c28, 0xbb610607, 0x3deb60b6, 0xbe0f9fcc, 0x3df09c77, 0x3dd1b67d, 0xbdc01eb7, 0xbe24ad04, 0xbe835931, 0xbdeaed09, 0x3be02116, 0x3de3dd56, 0xbdb56a61, 0xbde1d1ad, 0x3bd925a8, 0x3d92e65b, 0x3d465a50, 0x3e0b898f, 0x3dca0f49, 0xbddd1665, 0x3dd4f416, 0x3c83961e, 0x3e11785e, 0x3e252e04, 0xbe3606de, 0xbe0df593, 0x3d09d6e1, 0x3d1f7679, 0xbe8662b9, 0xbdf036fd, 0x3df93e1c, 0x3e3705b2, 0xbc66b7fe, 0x39e4b45d, 0xbb09b32e, 0xbc33b0c1, 0x3df4d59d, 0xbd9a8059, 0x3dd2e751, 0x3e2814ca, 0x3e22eb5e, 0x3dca9b1c, 0xbe3e1000, 0xbe9ca834, 0xbdc56ca0, 0xbd26919d, 0xbd70aad7, 0xbe0da411, 0x3dbb32bf, 0xbdb7d095, 0xbdac0922, 0xbe307a34, 0xbca1f3cf, 0xbda82f11, 0xbdb2dc7b, 0xbd390dad, 0x3dbb4632, 0xbd6e5443, 0xbdea7a88, 0xbe446ac1, 0xbbb1c93c, 0xbe151b78, 0x3cd42acc, 0xbd5ed0ae, 0xbdbb95c8, 0x3df39721, 0xbdc13c2e, 0xbe00411c, 0xbd7bddd1, 0xbdffed0b, 0x3c889645, 0x3dd7a0f8, 0xbdaabe41, 0xbe89beb3, 0xbdd6cd2c, 0x3e08d1a0, 0x3dc1b785, 0xbe97073d, 0xbd1579bb, 0x3e0387a6, 0xbd210798, 0xbe16a976, 0xbdb0c864, 0x3ca5f6dc, 0x3e70feac, 0xbe0a0497, 0x3cf55869, 0x3c03b441, 0xbcff11bf, 0xbe3dabfc, 0xbdfe752d, 0xbe323bdf, 0x3d09ed05, 0xbe029399, 0xbe222e41, 0xbce91b56, 0x3e35b136, 0xbda34087, 0x3ad45e47, 0x3d1a132e, 0x3d92228b, 0xbdd57744, 0xbcd6befa, 0x3e1f0a94, 0x3ce826d0, 0x3d38173d, 0xbd7fa8ae, 0xbdfe5f24, 0xbcadf6c3, 0xbdc7c7ae, 0xbd93925d, 0x3ae5eea7, 0xbd8ece45, 0x3d2650b3, 0xbe2cf83b, 0xbe4fbeea, 0x3e19ea47, 0xbb8ed221, 0xbe2bad73, 0xbea8e5b9, 0x3e25295a, 0x3dfb7f60, 0xbd0ef1e8, 0x3c848901, 0x3ce2e1df, 0xbd2f31fb, 0x3db8017a, 0xbc717f41, 0xbc9187cc, 0xbc74a73e, 0x3d41faad, 0x3d8e979c, 0x3ccfc84b, 0x3e111ee3, 0xbc1fe83d, 0x3c981d72, 0x3d97f9b2, 0x3c93de9c, 0xbd98f331, 0xbd1053cc, 0x3cf7470a, 0xbc0c8d86, 0x3da70aa5, 0x3dbd301a, 0xbd4908ce, 0x3d293b0c, 0xbd05856c, 0xbe375823, 0x3e118242, 0x3d274f25, 0x3d14ac96, 0x3cef8aae, 0xbe006b8a, 0xbe055cc9, 0x3c694828, 0xbd84da82, 0x3d307e28, 0x3d10423a, 0x3e181d4b, 0x3dcda71c, 0xbc4ca598, 0x3d46e2c6, 0xbdf91c99, 0xbc858567, 0x3c80a363, 0x3da8fe84, 0x3db54f34, 0x3c8d03a6, 0xba6aa718, 0xbd05c098, 0x3ddd90c0, 0xbdb4aca1, 0xbd5bfc90, 0xbe00f272, 0x3c9dd71b, 0x3e4d5371, 0xbe6b329a, 0x3c87721b, 0x3e505616, 0x3d9395ab, 0xbb36b6f6, 0xbb13f9ef, 0xbd3fce73, 0x3c882764, 0xbdb25154, 0xbe1e6946, 0xbde40e41, 0x3d86bb85, 0xbe8a31c0, 0xbe84d0cf, 0xbd2f66c5, 0xbd73d91a, 0xbd3b3e17, 0xbdee1abe, 0x3d23d51f, 0xbc6a2827, 0x3a02e676, 0x3c72e10c, 0x3db67fce, 0x3e13e41b, 0xbd68bb94, 0x3bf235e1, 0xbceaebfe, 0xbdbba7c7, 0xbd4dbd1d, 0x3d5703bb, 0x3dd2e500, 0x3d6fca9e, 0x3e1bc117, 0x3c31a13f, 0xbd5c338b, 0xbddcf318, 0x3e114742, 0x3e23c376, 0xbcbef803, 0x3cd20056, 0xbdf6ab93, 0x3d87ae06, 0xbd8546e5, 0xbd0f8c36, 0x3cb81b42, 0x3e02b7ac, 0xbcf50252, 0x3d70ce63, 0x3da89498, 0xbdaf2c7f, 0x3d132356, 0x3e07f5d3, 0x3c6a68ab, 0x3dfa70b4, 0x3d1c2b00, 0x3cee1606, 0xbe2f0dbc, 0xbda01a88, 0x3da4ae0b, 0x3d069831, 0xbecf68ed, 0xbd1dd8d4, 0x3d2d37e9, 0xbb881c11, 0xbe0ba3f8, 0xbd88b7ac, 0x3dba9717, 0xbe41e168, 0x3c6949ec, 0xbda0aaa8, 0xbe394569, 0xbdfe01f4, 0x3c75205e, 0x3952c474, 0xbd1d6406, 0xbe0f45c1, 0xbdc7abc9, 0x3c907094, 0x3cb06e29, 0x3d022cc8, 0xbd5ab479, 0x3d841e2d, 0xbdf585ec, 0xbdccf724, 0x3ce4c5dd, 0x3d1fadd6, 0xbd3c5095, 0xbb622e07, 0xbc23114d, 0x3cf166d4, 0x3d01065e, 0x3d1eb65a, 0xbebe80bb, 0xbe1286a4, 0xbd19ec33, 0xbd764c12, 0xbc3667ef, 0xbc6563ce, 0x3c5b81c9, 0x3b4f4ebc, 0x3de4660d, 0x3d8f0770, 0x3e583fb7, 0x3e0c048d, 0xbd61950c, 0x3d8632bd, 0x3e2184e8, 0x3dbea919, 0xbe0362fa, 0xbd9551ea, 0x3bdb543b, 0xbd1d4a54, 0xbeb8e1ae, 0xbde46667, 0xbdef086b, 0xbd199962, 0xbdc61fa6, 0xbd254102, 0x3d72f4c7, 0x3df1e00f, 0x3dda62d0, 0x3c68b15e, 0xbce1469e, 0x3db167d7, 0x3c504e62, 0x3d9e7bf2, 0xbcfd8adb, 0x3dfe52d3, 0x3cbcf831, 0xbdaf7ce0, 0xbe2041f8, 0x3d95cb6f, 0x3b079b38, 0x3dddacc0, 0x3e3fa1eb, 0xba7f077a, 0xbdfbffd5, 0xbe7ac905, 0xbdf04699, 0x3c5c64c7, 0xbdd38a2c, 0xbcc8b04e, 0x3d1e9e8d, 0xbe4b7cde, 0xbe2549ea, 0x3ba1afd3, 0xbdb64951, 0xbe0c6834, 0xbe2e0d42, 0x3cd7f138, 0x3d8c7d61, 0x3d187bde, 0x3d916e7b, 0x3d8384fa, 0x3df9e926, 0x3de4e69a, 0xbd142df1, 0xbe0274b8, 0x3d448677, 0x3d233908, 0xbe1ad778, 0xbe0a3d6c, 0xbd650dad, 0xbd93acc6, 0x3d924787, 0xbdc95c7a, 0xbd0ca120, 0x3c8bdf03, 0xbe4a000d, 0xbd49a01c, 0x3dffb9e0, 0x3e18b459, 0xbe93781c, 0xbcfd5f75, 0xbe5ccb45, 0xbd85e00b, 0xbda673f2, 0x3df6f95d, 0xbe0141d6, 0xbdbe8b9b, 0xbe473e00, 0xbe2a5d6c, 0xbe164ad5, 0xbcaa00a9, 0x3dd84500, 0x3dcbe71f, 0xbdd60923, 0xbe2a3117, 0x3e159b90, 0xbcba7c53, 0x3dc820e3, 0x3d87b589, 0xbd5eb58f, 0x3d405bfa, 0x3c232089, 0xbe19f1fa, 0x3d12fba3, 0x3d8b8540, 0xbdc5a000, 0xbe05d98e, 0x3e74b571, 0x3daec93b, 0x3c9b28fc, 0xbc9b05e5, 0x3d939a15, 0xbdb57597, 0xbd106ed0, 0xbe0e5fb7, 0x3dadd0e0, 0xbd4b1e4a, 0xbe42895d, 0x3d8ebe00, 0xbdd47acc, 0xbd9884d4, 0xbe019ded, 0xbe182ed2, 0x3d4fb5d1, 0x3a5054ed, 0x3d4b58fb, 0xbd68df34, 0x3c88d2ce, 0xbcf85157, 0xbe658656, 0x3d83d4bb, 0xbdb8a346, 0xbe2acc8e, 0xbc488024, 0x3dd3e91f, 0xbdd0f2bf, 0xbdfe864d, 0xbbac857b, 0xbc4a8cc6, 0x3d7c7d94, 0x3dc7648b, 0x3da7fc08, 0x3d8f9119, 0xbe196db8, 0xbd5c9f8b, 0xbd524cb6, 0x3e51ac7b, 0x3e5a24f4, 0x3da2e001, 0xbdc6c05a, 0xbce92909, 0x3b88d9d4, 0xbd35d671, 0xbe7541ca, 0xbe68d87d, 0x3c84c81b, 0x3d865d84, 0xbd371e26, 0x3e3cdb65, 0x3e21d28e, 0xbc0dca31, 0xbdf707f2, 0x3e2534b5, 0x3d15f3eb, 0x3dbc3df5, 0x3dd26670, 0x3e27ed17, 0x3e318565, 0x3dd737ee, 0xbe109140, 0xbe2e15eb, 0x3ec934d1, 0x3e2fb84d, 0xbb374556, 0xbb5d1326, 0x3e261ecf, 0xbb9d4ad1, 0xbdc0c288, 0xbe49dbd5, 0xbe2cfccc, 0xbcf9d8e1, 0x3d3e2a39, 0x3da74259, 0xbe34b789, 0x3c95b064, 0x3e139f45, 0x3b6aca78, 0x3e289d7d, 0x3e10750d, 0x3da2fffd, 0xbc87bbe0, 0x3dd756d3, 0x3c291629, 0x3d0e04ae, 0x3cb8ebd1, 0x3e7ccfee, 0x3dcbfd48, 0xbdb8a069, 0xbe2379d9, 0xbc388f60, 0xbe454288, 0xbda3030d, 0x3d1df426, 0x3e1dc1ac, 0x3e08acfa, 0x3e359990, 0x3d8d40a9, 0x3d6cd1dd, 0xbc70ef76, 0x3cc6eb23, 0xbd547e91, 0x3d8fc9c3, 0xbd2821b2, 0xbc858881, 0x3e046806, 0xbcf46f7b, 0xbd69826c, 0x3b851242, 0xbd839b7d, 0x3dae9a9c, 0xbc99da38, 0x3e169bec, 0x3e0d3ae9, 0x3bbe9848, 0xbd808adf, 0xbbe69686, 0x3d397e8c, 0xbe40776a, 0xbcbcd2c3, 0x3d1b8be7, 0xbd1ea046, 0x3d7f02ce, 0x3e8256fe, 0x3e17e48c, 0x3de95bc4, 0x3d9f514f, 0x3ddbfc6b, 0x3da2d303, 0x3e21fd3b, 0x3e2d15a5, 0x3d694cad, 0xbddc5ad4, 0xbbf82299, 0xbda79c7b, 0xbd8dc2a7, 0x3dab00b8, 0x3c7ec9cc, 0xbe0061d5, 0xbd39ed1d, 0xbd88a485, 0xbda3498a, 0x3e9ac1bf, 0x3d05446e, 0xbd3d0ece, 0x3d819c69, 0x3db93274, 0xbda49e9d, 0xbe6b9674, 0xbe13f269, 0xbcfa97c0, 0xbc7f4ad8, 0x3a158f2a, 0xbd92fcac, 0xbdbb3fbe, 0xbc4d86b9, 0x3da7c6f2, 0x3e1a8ac3, 0xbc8ff868, 0xbda3e7df, 0xbdccf802, 0x3ceec7e4, 0x3d8409a4, 0x3e2a0838, 0x3c97f25c, 0x3e1edc21, 0xbcaa68fe, 0x3e2a0df1, 0xbd90275a, 0xbe57c00c, 0x3d2b6b3e, 0x3da535b2, 0xbd0d535b, 0xbcb85693, 0x3cc16d5e, 0xbe226ff6, 0xbe11c95a, 0xbd8a722a, 0x3c5add06, 0xbda45f08, 0x3d54b1c1, 0x3d428010, 0x3e6a3f33, 0xbe40b506, 0xbd813d57, 0xbda5498b, 0xbd84894c, 0xbdb39f45, 0xbdd55eca, 0xbdbbb81f, 0x3d52de52, 0xbe003042, 0x3ca42e5e, 0x3d84bfda, 0x3ca1f359, 0x3d87c94f, 0x3c85a0a6, 0x3d5e55ef, 0x3c27d4e5, 0x3dcd5f51, 0xbb7b3ee5, 0xbe3a44b7, 0x3cde6968, 0xbd1a0df2, 0xbd5cc6f3, 0x3cd7dba2, 0xbc839a5b, 0xbc90e0a3, 0xbd652235, 0x3e1c2c5d, 0x3b80cd7f, 0xbd9f8419, 0x3d11533e, 0x3de41e5d, 0xbe42bb68, 0x3c4fbb38, 0x3d88efa3, 0xbd891149, 0xbd8a7d58, 0x3dbf21a6, 0x3d7f8e25, 0x3cbf5e2d, 0x3d9c0170, 0xbce6df81, 0xbd92dc4b, 0xbcb1ae68, 0x3cf4d5f3, 0xbc4ce981, 0x3d392617, 0x3d84638a, 0x3c39097e, 0x3dcbf770, 0xbd86b2e0, 0xbda39147, 0x3e07edbd, 0x3dd2dc0e, 0xbd1094ba, 0x3d0be00d, 0x3e117ce9, 0x3e093c5b, 0x3cf63f6a, 0xbdea6999, 0x3d9700b5, 0x3c620d12, 0xbd174bee, 0x3ccc8b91, 0xbcbda753, 0xbe54c8e4, 0xbda221e7, 0x3e59fab1, 0xbda5aa2b, 0xbe01dea7, 0xbd13d80e, 0x3b975d44, 0x3e674c3f, 0x3e79a15d, 0x3d177a05, 0x3e0b8c14, 0x3d2dcd32, 0xbd670626, 0x3dc2694b, 0x3dc310d1, 0xbd6c1ca0, 0x3ce235ed, 0xbd36b374, 0x3e027a44, 0x3e1dc877, 0x3e95cd5b, 0xbd3fe37f, 0x3c810f9e, 0x3db35580, 0x3dc62e30, 0x3c1dde1e, 0x3c2c8682, 0x3d6bcd87, 0xbd40fb0f, 0x3d530c42, 0x3d9a94f3, 0xbb65701f, 0xbd1688fe, 0xbc335b29, 0x3d8bffb0, 0x3b7699c4, 0x3db5cd85, 0x3e027ce0, 0x3d7b5485, 0xbd5751f2, 0x3c3af9df, 0xbc8fc464, 0xbdc30021, 0xbd225be8, 0x3cc8e43d, 0x3ddc6f57, 0x3e39d043, 0x3cd81c8b, 0x3db72e5c, 0xbb50b257, 0x3dd55ad5, 0xbd92bb5b, 0xbdad502e, 0xbda71b03, 0x3da5397f, 0x3e8677dd, 0xbcc7a292, 0x3d9ccfd9, 0xbe029b6d, 0xbd28a6c1, 0xbd6432e5, 0x3e6d0797, 0x3d89270b, 0xbd37109c, 0xbdf85db9, 0x3dc0e02d, 0xbc461509, 0xbd08d93d, 0xbd981a75, 0x3cd053f1, 0x3d37471d, 0x3c566d7f, 0xbd317ea1, 0xbe2244bd, 0xbca38070, 0xbe98308e, 0xbe24a4c6, 0xbc29f23a, 0x3d46063d, 0xbe1e0727, 0xbe0f8f59, 0x3e944303, 0x3e5d28cf, 0x3cf49fd5, 0xbd10f022, 0xb9957aec, 0x3c53bdc0, 0x3d057cee, 0x3b37e166, 0xbdc3b664, 0xbdd6b87d, 0x3d95ce97, 0x3e29a18b, 0x3df84e2b, 0x3de1fb7c, 0xbccab3a7, 0x3c90e1a6, 0x3da20e81, 0xbd0d81fa, 0x3d175728, 0x3d7d7d12, 0xbc8335c5, 0x3e248e3d, 0xbd0dad6f, 0xbcbb7b75, 0xbd72471d, 0xbe26c97c, 0x3c08b1c0, 0x3d96b221, 0x3e49d0cb, 0x3e77eb67, 0xbd828c71, 0xbde7e340, 0x3dd0f053, 0x3e8df142, 0xbdc72770, 0x3d95d5c1, 0x3cfc5744, 0xbda6c9de, 0xbe151889, 0xbe53790c, 0xbda303c3, 0xbe0b34b4, 0xbe53428a, 0xbdee828e, 0xbd44cc58, 0xbd495f56, 0xbd28f19f, 0x3dac598c, 0x3e00eb23, 0xbd8a17a5, 0x3c0e75b1, 0x3e144895, 0xbd9fe531, 0xbd8722b9, 0x3c75806a, 0x3be68bd4, 0xbb398746, 0xbe10106e, 0xbd031f8f, 0xbd3e3094, 0x3ddede18, 0x3d2812f9, 0xbdebd764, 0x3df06573, 0x3b09ece0, 0x3e128bfd, 0xbd5ab12e, 0xbda09b9b, 0x3d465650, 0x3d118ddb, 0xbd230275, 0xbcf558e5, 0x3d0ab693, 0x3ce33afa, 0xbe9f3b70, 0xbda959bb, 0xbcd713cd, 0x3d8d0714, 0xbe129d80, 0x3cd58797, 0x3e122295, 0x3e3a1d31, 0x3dede8fe, 0xbba899f3, 0x3d7cbb29, 0x3d9d8a8f, 0xbd2a97f6, 0x3d5647c3, 0x3e187a45, 0x3d6114e9, 0xbe2c1676, 0x3d18b4d8, 0xbdd2f841, 0xbdcec633, 0xbef3bc36, 0xbd67f573, 0xbc49e1e1, 0x3d08e990, 0xbdd4e4f6, 0xbd1589a6, 0x3d17a2a3, 0x3daab3ef, 0x3e2f4aed, 0x3dc1ae2b, 0xbc577970, 0x3e367ffc, 0x3dc1ac1e, 0xbc96ba9f, 0xbccc5761, 0x3e3c7e7a, 0x3cd9c805, 0xbd950408, 0xbdf71b7d, 0x3d5da3c8, 0xbc8d1438, 0x3e3a7d92, 0x3e500b45, 0x3c345c04, 0x3d956e8c, 0xbe2f8d63, 0xbd23382b, 0xbe10993a, 0xbd994524, 0xbdc3ca73, 0xbd3eca2e, 0xbe313aa4, 0xbe226e3f, 0x3cbd73b4, 0xbde165e6, 0xbe4a0d8c, 0xbe0140d7, 0xbd9a3712, 0xbc4cc992, 0x3d1e4967, 0x3e4f5ad6, 0x3d48d939, 0x3df77bcc, 0x3ddb3829, 0xbc520cd6, 0xbcbf45f8, 0x3d7ca332, 0xba405aeb, 0x3d9be20e, 0xbe37ddfc, 0xbd9ab844, 0xbd3fdf0b, 0x3e2d3650, 0xbdeed75c, 0xbe2c0630, 0x3dc8ce5c, 0xbe52140c, 0xbca58214, 0xbcef7398, 0x3e44d0da, 0xbe284033, 0x3d8bf942, 0xbe3e0aca, 0xbe14bba3, 0x3ca84e53, 0xbbdd882f, 0xbe22457e, 0x3d0e800f, 0xbe16cd6f, 0xbdb024c3, 0xbe1b729a, 0x3ddd5d77, 0x3d8586de, 0x3e089dfe, 0xbd00c473, 0xbe33242f, 0x3e2e2a40, 0x3aeaf177, 0xbd4d8cb4, 0xbc825cc5, 0x3d191d71, 0x3ddd4f5a, 0x3dbcbd97, 0x3e054e05, 0xbb941d03, 0x3dd5594c, 0xbc9973f5, 0x3d822a6e, 0xbe122178, 0xbc4489d3, 0x3e66727f, 0x3df0e4e2, 0xbd1238c6, 0x3d77e2d3, 0xbdf6f4c6, 0xbcd15c06, 0x3c975475, 0x3e2e900f, 0xbcbb3adb, 0xbb248a57, 0xbcbf34fa, 0x3d9de4f5, 0x3c90705d, 0xbe1a40ae, 0xbd77574a, 0xbd91e497, 0xbd9dc04b, 0xbdf54fa5, 0xbd9382be, 0xbd39201e, 0xbc1c86d5, 0x3c63e65d, 0xbd302b21, 0xbd87c827, 0xbda69d7c, 0xbddd72ec, 0xbd8f13c6, 0xbd3e83f0, 0xbd908edb, 0xbe1003fb, 0xbd69ac2e, 0xbdbcd2d8, 0xbe766d15, 0xbe5c9d37, 0xbe01c63f, 0xbd996110, 0xbd408aaa, 0xbd16048c, 0xbd7e294d, 0xbd680745, 0xbd8c2b94, 0x3c94087e, 0xbde0146a, 0xbde7c731, 0xbd631095, 0xbd8fa513, 0xbe13e1a5, 0x3de9663d, 0xbdaaac55, 0xbe02e35e, 0x3d7d5a6f, 0x3d0b076a, 0xbdb6f697, 0xbdb4572e, 0x3bf3f1b5, 0xbe0c9c2a, 0xbe613a6c, 0xbe537593, 0xbe147ed9, 0xbcdaa26b, 0xbe2fe355, 0x3cac47e5, 0x3d14d606, 0xbc79d9a6, 0xbdc7f705, 0xbddf56b3, 0xbbdd5ff1, 0x3c6e28ea, 0x3e244cec, 0xbd3e48c8, 0xbc30d18b, 0xbd02a0a1, 0x3d67a3fe, 0x3e322f6a, 0xbcb6a0fd, 0xbc945357, 0xbd982a73, 0x3e2a53ad, 0xbd5c75bf, 0xbd7a0844, 0xbda8621e, 0xbdd2b26d, 0xbde01aef, 0xbe0209af, 0x3d6f1d96, 0xbc8488be, 0x3d9f157a, 0x3d7406c2, 0xbdcc50ad, 0xbd3f15be, 0xbc2fc174, 0x3e096700, 0x3d62ebcc, 0xbe2fb529, 0xbdf3b381, 0xbd9c8d61, 0x3d4180cd, 0xbd4d3df5, 0xbd86ae36, 0xbdc4fdb1, 0x3d1169be, 0x3d1e4a67, 0xbdbf91dc, 0xbd2ab5e6, 0xbcd4f8a5, 0xbd1ef55e, 0xbd7b27e7, 0xbda20919, 0xbdedc6bf, 0xbe03bd6f, 0xbd450cbf, 0x3d42933e, 0x3c931511, 0xbdfed29f, 0xbd90bf35, 0x3beb1ab4, 0x3b3bce7f, 0xbce10f8e, 0xbd4f3fdb, 0xbe066b5a, 0xbe22aecd, 0xbd30e0ad, 0xbd79a82a, 0xbe1dc24e, 0xbda5aa79, 0x3e200b31, 0xbd90aeb5, 0xbd6fdc72, 0xbd02a774, 0xbe6526dd, 0xbd4bafbc, 0x3d57b773, 0x3d59f7ce, 0xbc9af753, 0xbe16166d, 0xbc84dbe1, 0xbdb4a4aa, 0xbd753056, 0xbcdde143, 0xbd99a37b, 0x3d92327d, 0xbbd9f394, 0x3c6f3746, 0x3d8f3f18, 0x3c8733fd, 0xbe7de85d, 0xbe222b99, 0x3e0c6a8d, 0x3e301fb3, 0xbc9e295e, 0x3c95a7aa, 0x3c5a1097, 0x3d0f6e37, 0x3d1f3b4d, 0xbd802cfb, 0xbad8a1c3, 0xbda5284d, 0x3e286f96, 0x3e0d403a, 0x3dc05594, 0xbbdd5b59, 0xbdca1337, 0x3dc83d09, 0x3e0d5846, 0xbd1e4eaf, 0xbe3c5bb1, 0xbd87e56f, 0x3d809877, 0x3d5819ff, 0xbd965f59, 0xbe038cd5, 0x3bc18671, 0x3e05d126, 0x3c90a6b2, 0xbe01add1, 0xbe47ae40, 0xbc511a66, 0x3e6a62d6, 0xbdd51e40, 0xbda10eec, 0xbd75fc16, 0xbcc17d79, 0xbc9c9f8f, 0xbded299e, 0xbdbe3249, 0xbda5306d, 0xbbc21ab0, 0xbd2937da, 0x3bd2e9cc, 0xbdcc5b9b, 0xbc4c7307, 0x3dd465e7, 0xbde6184a, 0x3d4349dd, 0xbd9e5ef7, 0xbde98413, 0xbdf4a191, 0x3b694e5b, 0xbde94572, 0xbe7b40f9, 0xbe1873bb, 0xbe39bc41, 0xbd32fe17, 0xbe481f11, 0x3d2e7d57, 0xbe43b894, 0xbd42ba1a, 0x3e3d11e6, 0x3e1d07fc, 0xbd568647, 0x3ddf7376, 0xbcd7de45, 0x3dbc136a, 0x3c97a00f, 0x3e10ff41, 0xbda909a3, 0xbc1e2c21, 0x3beca32a, 0xbd5609b0, 0x3ca85685, 0xbe4cba33, 0x3cdcca11, 0xbdbb5ab2, 0xbd71b67c, 0xbdb101b4, 0x3e00a204, 0xbc9f762c, 0x3bb973c9, 0xbd924d8f, 0xbe323111, 0xbe07496d, 0xbe0f8409, 0x3e1d3b68, 0xbe5fb451, 0xbe27cd5c, 0xbe01af2b, 0x3e5196b7, 0xbdd65a2e, 0xbe291beb, 0xbe8462fa, 0xbe2aad9a, 0x3b7f3b4a, 0x3cbbf1df, 0xbdaaf312, 0xbe5775e3, 0xbe8b7938, 0xbc704a26, 0xbd542b93, 0x3dad5eaf, 0xbdada78f, 0x3b1b1a65, 0xbd995503, 0xbd6edaa6, 0xbd94e805, 0xbd42c4e6, 0x3d7d1695, 0xbd16afbf, 0xbd8bb977, 0xbce2dd75, 0xba366092, 0x3aba800f, 0xbd3b31db, 0xbc8dd94d, 0xbda4995e, 0xbdb5d134, 0xbbd10d45, 0x3b606c57, 0xbb3a1dbd, 0x3d83f38a, 0x3ae93c19, 0x3da1fdda, 0x3c899a6c, 0xbdbdab4d, 0xbce2e034, 0xbcd47177, 0xbde2c1d4, 0xbdb400a3, 0xbd868134, 0xbd6bbe09, 0xbcb45600, 0xbdb7194d, 0xbc50551c, 0xbd3b3e59, 0xbca46f8a, 0x3b8bc786, 0xbd8e22e4, 0x3c371e25, 0xbc57dc47, 0xbdd9d90b, 0xbd0c518f, 0xba88d4bc, 0xbdc86c28, 0xbd738d48, 0xbdec6acc, 0xbdb22e2f, 0xbb9a4e7e, 0xbd1104c7, 0xbdf864cd, 0xbdc6fc45, 0xbcf9bb25, 0xbc33305d, 0x3c825cb1, 0x3d50cae7, 0x3d94e9a8, 0xbd18eb87, 0xbd30088c, 0xb6ea4b60, 0x3cce77ab, 0x3c1e59b1, 0xbca4684c, 0x3cc333b5, 0xbd7b8db2, 0x3d05b818, 0xbc34405c, 0x3c85f9bc, 0x3c7e01cf, 0xbdaa7767, 0xbd4c7841, 0xbd0b32e4, 0xbc6003df, 0xbcd21492, 0xbcb01dce, 0x3bbfa0bf, 0xbd80c9fd, 0xbd21248d, 0x3ccaddeb, 0xbcf141fe, 0xba91ea41, 0x3d1014ca, 0xbd9fab10, 0xbd2e3a54, 0xbccd0539, 0xbca3f138, 0x3d25431a, 0x3a195999, 0xbbec87c0, 0xbd8eeb53, 0x3cdeb694, 0xbba72d50, 0xbcb184ac, 0x3c996930, 0x3cca22e0, 0x3cc64323, 0xbd00d85d, 0x3ca048eb, 0x3d1e1ddc, 0x3b1f58fb, 0xbd63f934, 0xbda584f8, 0xbc34cec3, 0x3b12b4a1, 0x3af98c03, 0xbcd6728d, 0xbdad6ab5, 0xbd395680, 0xbd7ef059, 0xbd2e7e24, 0xbcccea4f, 0xbd6b595e, 0xbda6cfb0, 0xbc29514e, 0x3c773eca, 0x3cbfdce9, 0xbd8fe6e2, 0xbb669246, 0x3d82350b, 0xbd2724af, 0xbcaced73, 0xbbb85a5d, 0xbc779576, 0xbd3cd61a, 0xbda4ad54, 0xbc550f3b, 0xbd73d9a1, 0x3b071ab1, 0xbc20ed86, 0x3d147f42, 0xbd61fbda, 0x3ccc2b6e, 0x3d8cffa6, 0xbde3afed, 0xbc8f5326, 0xbc34697b, 0x3d7c16d6, 0xbbbbf96b, 0xbcce1aee, 0xbbdfef61, 0x3cf61227, 0xbdcc2aab, 0x3d26041a, 0xbd0514bf, 0x39e40079, 0x3c900f32, 0xbd0cb964, 0xbcb24ace, 0xbb64c4a3, 0xbda6fe91, 0xbcc2fafe, 0xbd440cf2, 0xbc99c215, 0xbc8203c0, 0xbd58d39b, 0x3c829610, 0xbd8043c3, 0xbc012a55, 0xbc89e79c, 0x3c36840c, 0x3c65505d, 0x3cc7cc07, 0xbdc9a339, 0xbb3e9933, 0xbddde598, 0x3cdeedff, 0xbd446b92, 0x3d4bb69f, 0x3cb0d9e3, 0x3acf6ce4, 0xbcab4765, 0x3bddfed5, 0xbbdaa9b0, 0x3c90cc73, 0xbde52ecc, 0xbda352df, 0xbd63ea0b, 0xbd9d8ef1, 0xbc292a4a, 0xbcd6a277, 0x3c3e5e17, 0xbd2b089b, 0xbc7499f0, 0xbd76420c, 0xbd994b87, 0xba7dfb75, 0xbdf237ff, 0xbd52235b, 0x3c3f38a9, 0xbcd4fd5a, 0xbd8ceea4, 0xbd24148c, 0xbcca04ba, 0xbcc85fc2, 0xbdc3d497, 0xbd4854c5, 0x3c97bc0b, 0xbd0e23b5, 0xbcd6a2fc, 0xbd7d9135, 0xbda3c3c4, 0x3bd31171, 0xbdb1ecbd, 0x3c9637cc, 0xbdb7dce3, 0xbbc500c2, 0xbd86af12, 0xbc156b58, 0xbcd382ac, 0xba254385, 0xbba7b012, 0xbd0bc7ee, 0x3c9e7f18, 0xbcc7ae54, 0xbd79db4e, 0x3c65c018, 0xbd0e5e1e, 0xbd345017, 0xbc8b400d, 0x3d51b8e8, 0xbcaed93b, 0x3d0e8032, 0x3d7a0ebd, 0x3c3cc59a, 0xbcba2c41, 0xbc380537, 0xbd2d2071, 0xbc02980f, 0x3cb23d23, 0xbb32551e, 0xbdb671df, 0x3c8cfdcd, 0xbbd78ba4, 0x3d52e6d0, 0x3d8bc98c, 0xbce7f82c, 0xbd22bfb4, 0x3cd5cd0f, 0x3b0b4070, 0x3d3b3cbe, 0xbd3dc8aa, 0xbdb98696, 0x3d1c4a00, 0x3c856855, 0xbc325a6d, 0xbd96d22c, 0xbdbe3907, 0xbd0a111e, 0x3d1564a0, 0xbd46e5eb, 0xbd1694d5, 0xbd91d69f, 0xbd321fbc, 0x3bae8a83, 0xbe08de09, 0x3bf2a81c, 0xbd1debfc, 0xbd8ee417, 0x3d907e3d, 0x3d6b2fda, 0xbcda0edf, 0x3cddd94d, 0xbc8bd8f4, 0x3d419de4, 0x3d4e8f67, 0x3db9585f, 0x3d62b57f, 0x3d9e90a1, 0x3d9b4dc1, 0x3d6e09e0, 0xbe232f8e, 0xbe009787, 0xbe6e8305, 0xbde3f95f, 0xbcdaec56, 0xbe3a7c62, 0xbd253e9e, 0x3e24ca7e, 0x3ea12032, 0xbcbdd009, 0x3c493ec9, 0x3c39bd11, 0x3b1fce50, 0xbcaaa0ed, 0x3dc07ad1, 0xbe050258, 0xbd872644, 0xbd70df67, 0xbe4b0636, 0x3cf010ba, 0x3e0bf456, 0x3a96f5da, 0x3daa692a, 0x3df6af22, 0xbd5bb270, 0x3c34de26, 0x3d2d67d6, 0xbdb884ec, 0xbe11ca26, 0x3da1882a, 0x3d08d544, 0xbe1ad399, 0x3d096c85, 0x3e84fdd4, 0x3e326b2f, 0x3d9b01e0, 0x3e339ebc, 0x3d47563f, 0xbd69c554, 0xbdc759f7, 0x3ddbbaa4, 0x3e961f90, 0x3e555382, 0xbd1e9a0b, 0xbe7a63e7, 0x3dfa8992, 0x3b905b0a, 0x3ce0809e, 0xbe3f7212, 0x3d2fccb3, 0xbd7405e2, 0xbd4a9c78, 0x3dce11e0, 0x3dab62f3, 0xbe086fea, 0x3d454deb, 0x3bc3bc47, 0x3cbb0b31, 0x3deee8b1, 0x3bff75ed, 0xbd179f6c, 0x3dd6b7b1, 0x3cedf059, 0x3d3e48b9, 0x3d09c887, 0xbe5a6f00, 0xbd8da628, 0xbe0b3358, 0xbd8578c3, 0x3cdb9a7f, 0x3d53c10e, 0x3d39a84f, 0x3d9c042a, 0x3c919545, 0x3b149f5a, 0x3ca435c3, 0xbe1e7ca8, 0x3e61a19d, 0x3ded271d, 0x3bee94a7, 0x3da7395c, 0x3de25f83, 0x3d92962e, 0xbc6cdfaa, 0x3c0c2e40, 0xbe8e69ab, 0xbddd6be1, 0xbd5b383a, 0x3c0e5b1b, 0x3d196c64, 0xbd11ff82, 0xbba57c80, 0x3dbebcd0, 0x3d097474, 0x3beb27ef, 0x3da7eb75, 0xbd551fda, 0x3dca32e0, 0xbd8994d7, 0xbdd2d049, 0xbc096b90, 0x3dc4fa7e, 0xbc89e84d, 0xbda45dfc, 0x3bac8428, 0xbb6d80fd, 0x3d348ed4, 0xbd9ab640, 0xbe4c84b3, 0xbd69e216, 0x3d6eb2f9, 0xbe05cfec, 0xbe8ee6c5, 0x3da2dba1, 0xbb748804, 0xbe028da1, 0xbdcd8167, 0x3e72dc22, 0x3e3312c5, 0xbdb6b26e, 0xbde11807, 0x3d510383, 0x3d52f0c9, 0x3db20a51, 0x3e2696f9, 0x3db6d753, 0x3d5056a6, 0xbde11fb5, 0xbe1197f2, 0xbe2aed54, 0x3d9da3bd, 0xbc5eeed3, 0x3de8ad19, 0xbda6d469, 0x3e0191f5, 0x3d850c67, 0xbc10017e, 0x3de8cf6f, 0x3d9493ec, 0xbaf78206, 0xbcacedab, 0xbba2a6ab, 0xbd5ead69, 0x3bca3223, 0xbda44599, 0xbdb86318, 0xbca9625b, 0xbc237111, 0xbcb15d1d, 0x3d867cb2, 0x3d36473d, 0x3ce72548, 0x3dd9757c, 0xbd80b31b, 0xbe5585fb, 0xbce80671, 0xbcbd3e6a, 0xbd4c9b9b, 0xbd3a2a50, 0x3de59b20, 0x3e307332, 0xbd0d755e, 0x3e236eed, 0x3da32743, 0xbd8cdc79, 0xbb40c986, 0xbd716b5a, 0xbe0bb92e, 0xbe0cb1f8, 0x3e06a681, 0x3dc6e5c4, 0xbdefde33, 0xbd215a91, 0x3df24dae, 0xbc8e1be6, 0xbcbbc98c, 0x3de6a71e, 0xbc85e587, 0x3aabed85, 0xbdb8e5b0, 0x3def6c3f, 0xbe15656c, 0xbdd3e6d4, 0x3df750f4, 0x3de39602, 0x3df7a38e, 0x3c046ccd, 0xbcde0657, 0xbe8d6751, 0x3d9f4592, 0xbd7bfb44, 0x3de001eb, 0x3db0cd0a, 0x3c2a742c, 0xbda6fd94, 0x3dd7c09c, 0xbc9742f9, 0x3e163661, 0xbd3531b8, 0xbdcc5ca6, 0xbdab5d13, 0xbd01ebf0, 0xbe09dadd, 0xbe59578d, 0xbddd1752, 0xbe758344, 0xbd341ac8, 0xbcf8c896, 0x3baf9d64, 0xbe7e11e6, 0xbd3a2b12, 0x3c2ebfed, 0x3d980c5d, 0x3de71071, 0x3d36c6ec, 0xbc6a7bea, 0xbd9df15c, 0x3da1ae84, 0xbc6a1e6d, 0xbda8394e, 0x3cb58ce6, 0x3cd2c5f5, 0xbe121e83, 0x3df8c47b, 0x3d8bb508, 0x3e14374b, 0x3d364627, 0x3cab4760, 0xbd5ee0df, 0x3da7ec05, 0xbbea3e2b, 0xbe47b0c0, 0xbc4bab08, 0x3d9b6028, 0x3d384111, 0x3e1f59f8, 0x3d66a36d, 0x3d9783b3, 0xbb8ec1af, 0xbd330922, 0x3d4ca1fd, 0xbdf3fa13, 0xbe56d10b, 0xbdee09d8, 0x3e4f1471, 0xbe80475b, 0xbde8efc0, 0x3d0eef55, 0x3e68a438, 0x3dc24726, 0xbac28bc3, 0xbe472227, 0xbd1a7fe7, 0x3c88bbc3, 0x3d279641, 0xbd92e025, 0xbdd54823, 0x3e0bdfa6, 0x3dc63f59, 0xbd47ffbc, 0xbd8af521, 0x3dbf2670, 0x3e1b4023, 0xbdbe648b, 0xbcd955fc, 0xbc0d66d2, 0x3ca6d38f, 0xbd92d403, 0xbe5c2eca, 0xbde26791, 0xbd9007b0, 0x3e3dbe57, 0x3e1e8c97, 0xbe054638, 0x3d0308b6, 0x3e039ed4, 0x3e04a9c3, 0x3d699ffa, 0x3cf4acef, 0xbb91c264, 0xbc74b2e7, 0xbc4b025a, 0xba838518, 0xbd5e1239, 0x3c9ccb93, 0xbda00ad3, 0x3bbf04e2, 0xbcdc6181, 0xbe6ae349, 0xbe670df7, 0xbddae95f, 0x3ca77dc8, 0xbc1314c2, 0x3dae290a, 0x3d0ad408, 0xbd807eb7, 0xbe08b60d, 0xbe72660f, 0xbd9844c1, 0xbd5bf78d, 0xbe979745, 0xbe08dfe7, 0xbd9c2090, 0x3cac1b81, 0x3e2d8b98, 0xbdc37e5c, 0x3d189c40, 0x3d8c7a26, 0x3ddc5b24, 0xbd937399, 0x3d6085ec, 0x3e2bfa3c, 0x3d1fd70c, 0x3bf8b85d, 0xbc5fb2a1, 0x3d9591b5, 0x3e0e3963, 0xbe54d2a7, 0xbd163ec3, 0xbd7630d2, 0x3d8fb4aa, 0x3da156a2, 0x3d142349, 0x3e908f7e, 0x3ce7f844, 0x3dc02b49, 