#include "signet_params.h"
const uint32_t NN_Signet_Param_layers_conv1_weight_Size = 80;
const uint32_t NN_Signet_Param_layers_conv1_weight_Data[] = {0x3cfa1a33, 0xbe9e45fc, 0xbe77bc92, 0xbe32f441, 0x3edb5ec4, 0xbe6be24a, 0xbe28d280, 0xbe49eac2, 0x3c83b925, 0x3d1e007b, 0xbe5279ce, 0x3e0603a3, 0x3e92daf4, 0xbe5f7d4c, 0xbded78f9, 0xbdf4d891, 0xbe7527e0, 0xbec6affb, 0xbdfc6e42, 0x3e4c68aa, 0xbe3b4a12, 0xbe21b808, 0x3c534cb7, 0x3d5a4ed6, 0x3e22468b, 0x3e51a7ef, 0x3e86cac1, 0xbe15dfa9, 0x3d7e0159, 0x3e2eab0c, 0x3e1457b6, 0xbe394315, 0xbe634cef, 0x3e5d33a3, 0x3e563cb0, 0xbed79ef0, 0xbbe41965, 0xbe28f1ec, 0x3d66309c, 0xbe713174, 0xbe9ef887, 0xbcdbe7dc, 0xbe8dec88, 0x3d52dc36, 0x3de25dd1, 0x3e89309b, 0xbe3e9249, 0xbdbbedb4, 0xbd627672, 0x3df3a76d, 0x3e708bf5, 0xbe923302, 0x3e1e5177, 0xbc410092, 0x39c3a26f, 0xbe80a74c, 0x3e0c6e8e, 0xbe0e141f, 0x3e9eb00f, 0xbde79822, 0x3e50892a, 0xbdf1ce06, 0xbdb6b920, 0xbe46b9b4, 0x3e5e638a, 0x3e909c27, 0x3e16e5d8, 0xbe5d2707, 0x3e5b7436, 0x3cf04300, 0x3dab545c, 0xbdce174e, 0xbe2eca2e, 0xbd002000, 0x3e1cdb96, 0xbbb029c0, 0xbd441a78, 0xbe2efca6, 0x3e60c0ae, 0x3e12795c};
const uint32_t NN_Signet_Param_layers_conv1_bias_Size = 8;
const uint32_t NN_Signet_Param_layers_conv1_bias_Data[] = {0xbcb6445d, 0x3c809406, 0x3e58a197, 0x3c295618, 0xbce6385e, 0x3e77a11c, 0xbea1e5bb, 0xbdd98de6};
const uint32_t NN_Signet_Param_layers_bn1_weight_Size = 8;
const uint32_t NN_Signet_Param_layers_bn1_weight_Data[] = {0x42a27cab, 0x4224d195, 0x42111ebf, 0x42399f61, 0x43794e50, 0x42776895, 0x439e1d28, 0x439e1d28};
const uint32_t NN_Signet_Param_layers_bn1_bias_Size = 8;
const uint32_t NN_Signet_Param_layers_bn1_bias_Data[] = {0xbe36a486, 0xbf4c6efa, 0xc0f7092a, 0xbf2e8608, 0xbdbf465e, 0xc16c8d89, 0xbdcd9424, 0xbdde1c31};
const uint32_t NN_Signet_Param_layers_conv2_weight_Size = 640;
const uint32_t NN_Signet_Param_layers_conv2_weight_Data[] = {0x3e7e5562, 0x3c66f75a, 0x3d9262de, 0x3e1bfe32, 0xbcac6601, 0xbc749970, 0x3df621e9, 0x3e1c6827, 0x3be5e536, 0xbd526e0c, 0x3daa6d94, 0x3d002995, 0xbdbffa35, 0xbd3d275c, 0x3d80a9e1, 0xbe5442ed, 0xbc3ddb29, 0x3d1b807a, 0x3c0b20a4, 0xbe054f7d, 0x3e17cec4, 0x3e008a54, 0xbe17e89b, 0x3dc28809, 0x3dbb6a2a, 0x3d403f8b, 0xbc687a78, 0xbd2329a3, 0x3d47c670, 0x3c674877, 0xbd42d9b3, 0xbbd7d0af, 0xbe8459f5, 0x3c2ad0d5, 0xbe58713b, 0xbe3c7758, 0xbdd618b9, 0xbe873248, 0xbde2735b, 0xbd3831de, 0x3ca74633, 0x3ddfc679, 0xbdba0010, 0xbdc22450, 0x3ca8bf1c, 0x3db4c112, 0x3ca88d44, 0x3e204463, 0x3e8c58d9, 0xbe0795bd, 0x3c94abe4, 0x3df597f0, 0x3da5fdb9, 0xbdf2b814, 0xbd9a8da2, 0xbe0fcf1d, 0xbdf06888, 0x3da7ffb0, 0x3e2b318c, 0xbdc9cc53, 0xbd6126ed, 0xbe0e2eb8, 0x3d7259e1, 0x3dee3f10, 0xbe8b702f, 0x3d109519, 0x3cb8d832, 0xbdbac314, 0x3d15a885, 0xbc92923f, 0xbd4b04e2, 0x3d993817, 0xbdc90529, 0xbdaa86f1, 0xbdc4e569, 0x3c888509, 0x3e339fc1, 0xbd7caaed, 0x3df29933, 0x3dffb52d, 0xba7117e2, 0xbe08411a, 0xbdb3bf42, 0xbdcc4162, 0x3b6f9d85, 0x3c08a630, 0x3d1967ba, 0xbda4f99d, 0xbccb9b08, 0xbdf0e28f, 0xbdad745e, 0xbd9aeb88, 0xbdc9df29, 0xbabeb833, 0xbd6f2ec0, 0x3bf6261a, 0xbde75647, 0xbddc04c6, 0x3d0c51b0, 0x3c0569d9, 0xbda35378, 0xbe2698fd, 0xbd37565e, 0x3c435f98, 0x3c93cb4b, 0xbde2760f, 0xbe05dde5, 0x3e1764f7, 0x3e6c7e36, 0x3e303751, 0xbb6ffd08, 0xbd688bb4, 0xbd090b31, 0x3cb26070, 0xbc78059b, 0x3de6e6c5, 0x3e1751ca, 0x3b551a73, 0x3d81ea43, 0x3dfe8f7a, 0xbe2e10c6, 0x3cd1f47f, 0x3e427ac7, 0x3d88bb7f, 0xbb0c9d06, 0x3d90e8b2, 0xbe05d2a2, 0xbe808acc, 0x3d94b354, 0xbdab3be9, 0xbd841a94, 0xbd9b16f5, 0x3da27245, 0xbd368ffa, 0x3d0559a5, 0x3da9007e, 0xbd8f9fec, 0xbe4118ae, 0x3d3c99dc, 0x3caf7396, 0xbe35832b, 0x3dd2490c, 0xbe302667, 0xbd49bfd2, 0x3d14e476, 0xbd2b91b1, 0x3d935c34, 0x3d4a8ec6, 0xbd5d36cc, 0xbc86ba28, 0x3e11a891, 0x3e02ca52, 0x3d9d141d, 0xbb68e190, 0x3dfab27b, 0xbdeb2466, 0xbd9c4870, 0xbd6e2215, 0xbdee7daf, 0x3d8a7987, 0xbe245907, 0x3ce5c504, 0x3cdd369c, 0xbd7f98d5, 0x3d30bd15, 0x3da031c7, 0x3e1df483, 0xbe03f1da, 0xbe85cf76, 0x3dce3d23, 0x3d200c18, 0x3b674289, 0xbd876e13, 0x3e08b439, 0xbd963b4a, 0xbd5afda1, 0xbd8b2c48, 0xbd893550, 0xbe901d00, 0xbd12eec1, 0x3dcab3cd, 0xbe0cf420, 0xbcd47fca, 0x3d422b7b, 0xbd301e91, 0xbc5b5b19, 0x3d920428, 0xbc1c4098, 0x3da21423, 0x3bdba87e, 0xbb0c9a2b, 0x3d856fa1, 0xbdc238c0, 0x3cdc953a, 0x3dc0ef72, 0x3ca0dc6d, 0x3ddac52a, 0x3d9ab216, 0x3e4343d3, 0x3d352ae4, 0xbda6f29f, 0xbd727835, 0x3d8b5662, 0xbdbb6749, 0xbd497def, 0xbe4b9bfd, 0xbdf01e55, 0x3e102a3c, 0x3c7711c1, 0x3c394988, 0x3d13d864, 0x3d12e320, 0x3d99d889, 0xbc8aeeff, 0x3ce8a2b0, 0xbe79e5ca, 0xbdf9606d, 0xbcb56ef9, 0x3dbae729, 0x3c83f1d9, 0xbe12c40f, 0x3bef3da6, 0x3afc9f11, 0xbd8360a2, 0xbdb510b7, 0xbdba1718, 0x3c0d691b, 0x3e29c9d4, 0xbd981d9a, 0xbd4f7501, 0x3dc5e561, 0x3d904356, 0x3d7ee70b, 0xbd46c6f5, 0xbd62af31, 0x3ddd76fa, 0xbc8eb563, 0xbd49843a, 0x3d1c6400, 0x3e24991e, 0xbd2302f4, 0xbe2084d9, 0x3ae793c6, 0xbdc69fa2, 0x3d91569b, 0xbe543e84, 0x3e081caa, 0x3def949f, 0xbe3ab2b3, 0x3b05c8af, 0xbd056652, 0x3e217207, 0x3dcdb71a, 0xbdaf8555, 0xbcc1cffa, 0x3d1d6c02, 0x3e2a656a, 0x3d35e715, 0xbde0e573, 0xbc79d9cc, 0xbde693d2, 0xbd8c0cc3, 0xbdf70d01, 0xbe00e1ef, 0xbd6acde1, 0x3d503fb5, 0x3e329ab4, 0x3cadba03, 0xbd9de4ad, 0x3dc58e3c, 0x3e23e8b9, 0x3d8c432b, 0x3e0a5a2d, 0x3df402c5, 0x3e30a6bf, 0x3e396c2b, 0x3dfdf940, 0xbdcb3028, 0x3e46694c, 0x3bdfa01b, 0xbc3b81b8, 0x3d2e274b, 0x3e229f61, 0x3db93e3b, 0xbdeb76b4, 0x3dfa4874, 0xbe61bfbe, 0xbe388255, 0x3dbca55b, 0xbd9d01bc, 0x3d012592, 0x3d2c02c2, 0x3cdcf417, 0xbd95b6a2, 0xbd1791a8, 0x3c175028, 0xbe90000e, 0xbe2a4662, 0x3bdccf07, 0x3bed0446, 0x3d8fb29e, 0xbd30cdfe, 0xbdb9d8b7, 0x3c004d26, 0xbd05f4a3, 0x3ca3432c, 0x3dd1a047, 0x3d86b018, 0xbceba55f, 0xbc079421, 0x3e2c18c3, 0x3d478249, 0x3e308085, 0x3dddc0a7, 0x3e50e46d, 0x3d1523f0, 0x3d4cc11b, 0x3e8ae255, 0x3d8e8c24, 0x3da42c0b, 0x3c5e02ee, 0xbceac2f2, 0x3d820173, 0x3e168070, 0xbdd4b021, 0xbe2bad31, 0xbd61b57a, 0x3e3c20a2, 0xbd55249a, 0x3d2ab6d4, 0x3db60508, 0xbcd3d9e7, 0xbde1ed6a, 0xbe197c8b, 0xbd36a39c, 0xbe1b4cf3, 0xbe4aac15, 0x3e124814, 0x3a85e8f0, 0x3d1954f9, 0x3df91a40, 0x3e2882ab, 0xbce10467, 0x3e40a4b0, 0xbd8b61c6, 0x3de324ca, 0xbc56f1e8, 0xbd7a8030, 0x3d080ce1, 0xbd8d538e, 0xbdf3baac, 0xbcc9da59, 0xbc75389b, 0x3dcbbfde, 0xbdc6cb7c, 0xbd39f983, 0x3afc3711, 0xbde5b44e, 0xbc1512eb, 0xbcc09c97, 0xbd77a04a, 0x3d7e0b17, 0xbc3d7bc2, 0xbd4bf617, 0x3d00a7af, 0xbe8b2a9c, 0x3d63602a, 0x3da055fd, 0xbd879c64, 0x3dd6fd5b, 0x3ad6583b, 0x3d60dee1, 0xbe08021c, 0xbd92f1d2, 0xbdac0aa0, 0xbe898760, 0xbe3b7f3c, 0x3dc4dd80, 0xbdb29fe8, 0xbd869b2a, 0xbdb8a53e, 0xbcc760eb, 0x3d684669, 0xbc93164a, 0x3c5920f3, 0x3dff8f2c, 0x3d1d5422, 0x3d29d70f, 0xbcc1a35f, 0x3ddaf46b, 0x3ded96e1, 0x3e6f75e0, 0xbd2f2ff4, 0x3de74f45, 0x3e04d90b, 0x3e5f42ca, 0x3da75daf, 0xbd6951d5, 0x3dd2b639, 0xbd71a19d, 0x3e0284a7, 0x3d55da22, 0x3e3fd279, 0x3e3163d9, 0xbe1cd96a, 0xbc097945, 0xbb7b12f6, 0x3c53b6d4, 0xbda70d4a, 0x3d6b576a, 0xbc87cf62, 0xbe13b18e, 0xbd03357c, 0x3da50966, 0xbd2e8c58, 0xbe313e6d, 0xbda52f17, 0xbe42a7e4, 0x3d8f4896, 0x3cb9449d, 0x3df157ea, 0xbe4f8b37, 0x3e0340c7, 0xbdf38ef8, 0xbc93103e, 0x3d80517d, 0x3dc78678, 0x3d9fb17e, 0xbd8232f0, 0x3c387922, 0x3e09a3f8, 0xbd520b81, 0xbd851687, 0x3e42480d, 0xbd49735b, 0x3e1e5b98, 0xbda92533, 0x3d1a25da, 0x3dd965f3, 0x3c303b35, 0x3c5e4e78, 0x3c51f9a5, 0xbda20ba8, 0xbbd55a36, 0xbd95ca21, 0xbd6b2040, 0xbceae3f2, 0xbdffff0a, 0x3e15c3f0, 0x3e2ba6c5, 0x3dafa56b, 0xbc5fe07e, 0x3daff9bb, 0xbde123eb, 0x3c122436, 0xbe1d83c1, 0xbd4df114, 0xbe2ce8ce, 0x3e44c5f6, 0x3bf56538, 0x3c715770, 0x3d8d8e74, 0x3d7b683e, 0x3e2c8bab, 0xbe0d9e4d, 0x3ce4b571, 0x3d8adfc7, 0xbbb1f4d2, 0xbd9062c4, 0x3c9eb349, 0x3c92a3c6, 0xbc82073e, 0xbd596e7a, 0x3d06e379, 0x3d814a8c, 0xbdc14403, 0xbd7b187f, 0x3db6317b, 0xbdd6222d, 0xbd13e440, 0x3e3c13da, 0xbda451a2, 0xbe323be3, 0xbc8d20b2, 0xbdd4618c, 0xbea40f22, 0xbd61aa39, 0x3dc94192, 0x3d332e34, 0x3c62a3af, 0xbd4b4110, 0xbd3d67b0, 0xbcf329a8, 0xbaeffdc1, 0xbdb3373e, 0xbe39683d, 0x3c2bf262, 0x3d846695, 0xbe0ca8da, 0x3daa5096, 0xbd82a2f5, 0x3d742083, 0xbbbf71f8, 0xbd09bcf4, 0xbdf6cd89, 0x3d9bea72, 0xbcb86228, 0xbc68e68d, 0x3b89a81b, 0xbccfbfc6, 0x3daaebcd, 0x3e72743f, 0x3e306677, 0x3bf66140, 0x3d74da1d, 0x3e9ae793, 0x3d6aa4c3, 0x3e52a613, 0x3d398a21, 0x3ea06e3d, 0x3e3c962c, 0xbdc66a1d, 0xbd827254, 0x3d85cc92, 0x3d4351d7, 0x3e64bd4f, 0x3d66956e, 0xbe1251ce, 0x3e35a147, 0xbdb93a9b, 0x3ce2decb, 0x3cbc2854, 0x3dc7d2ac, 0x3d954f14, 0x3d97a9db, 0x3e10902d, 0xbdf30ba8, 0xbc85d196, 0xbda0f0c2, 0xbe6eca81, 0x3df2af18, 0xbe164b0d, 0x3d6a1f8d, 0xbd3fe3d2, 0xbd0d93e3, 0xbdaadcd9, 0x3dcd3459, 0xbcc9f6f3, 0xbba60de0, 0x3e13badd, 0x3ccb783f, 0x3de286cf, 0x3d9e8547, 0x3dd9c90b, 0xbdcaaceb, 0x3e073ec5, 0xbbe44781, 0xbdfbe8df, 0xbddd6821, 0x3e359c13, 0x3d8746b4, 0xbd69d955, 0xbd33f6db, 0x3e029711, 0x3e44636b, 0x3da9eda9, 0x3cb06d8c, 0x3e20f813, 0x3e249e15, 0xbd254525, 0xbb3af66c, 0xbd3e8482, 0x3d53e2a2, 0xbdbbd86a, 0x3e277880, 0xbe06b5cd, 0xbda6d0fe, 0xbdd9d29a, 0x3d1a06e5, 0x3d950a2f, 0x3dfbcc8e, 0x3e5c8e5f, 0x3e02dea0, 0x3d5c99f3, 0xbc86796e, 0x3da85061, 0x3d0c3d2c, 0xbc8ec1f3, 0x3d4df9a3, 0xbe0d6e7a, 0xbd47a119, 0xba216516, 0x3e218bf4, 0x3e2e10b6, 0x3da760a9, 0x3e3ed7a1, 0xbccd43a9, 0x3cbc9409, 0x3c9ddd01, 0x3e35098b, 0xbd24203e, 0x3bc08b94, 0x3d8f310a, 0xbdcf2894, 0x3cc60661, 0x3d9c7c9e, 0xbd2e2f5a, 0xbd39771a, 0x3d02a182, 0xbd70ae75, 0x3dbc41a6, 0xbe7ebc5f, 0xbe07e459, 0xbda19d6e, 0xbdba6724, 0xbd8edfcc, 0x3d869eeb, 0xbe3d994b, 0xbd5f9cfe, 0xbdeb102e, 0xbdb783c1, 0xbdb192c0, 0xbd5200cc, 0xbde06603, 0xbd2ba26d, 0x3d7da60e, 0xbe7036a8, 0xbe187e06, 0xbc657724, 0xbe153209, 0x3e5cbc8d, 0x3da9cbe5, 0x3dcbb553, 0x3e4db7db, 0x3e51ff84, 0xbccd6ca7, 0x3e3bd661, 0x3e2d62ff, 0x3d83759d, 0x3e15b255};
const uint32_t NN_Signet_Param_layers_conv2_bias_Size = 16;
const uint32_t NN_Signet_Param_layers_conv2_bias_Data[] = {0x3e0d45ae, 0x3d9d1813, 0xbe190db4, 0xbe151570, 0xbe08d607, 0xbdfab10a, 0xbddee95e, 0xbdb96ade, 0xba999ae4, 0xbe02bf1b, 0x3d633a1c, 0xbd8dcb57, 0xbd532c78, 0x3c58759f, 0x3abe8497, 0x3bc6eecb};
const uint32_t NN_Signet_Param_layers_bn2_weight_Size = 16;
const uint32_t NN_Signet_Param_layers_bn2_weight_Data[] = {0x401931d5, 0x40430dd5, 0x41251dd9, 0x4121e69a, 0x41001de4, 0x40fe6d5c, 0x41158ad0, 0x40f45516, 0x4026b82f, 0x41145201, 0x411ade53, 0x406b642b, 0x41b22ce8, 0x40245551, 0x403d5b16, 0x4117c482};
const uint32_t NN_Signet_Param_layers_bn2_bias_Size = 16;
const uint32_t NN_Signet_Param_layers_bn2_bias_Data[] = {0xbf56b578, 0xbf092258, 0xbecae15e, 0xbed30c97, 0xbeb72678, 0xbf203c77, 0xbedfb9e6, 0xbeb06d5b, 0xbf00f776, 0xbecc2beb, 0xbf109bd9, 0xbee43eb4, 0xbe84f427, 0xbef19c9b, 0xbf061cf1, 0xbec750bc};
const uint32_t NN_Signet_Param_layers_fc1_weight_Size = 2048;
const uint32_t NN_Signet_Param_layers_fc1_weight_Data[] = {0xbd5e780e, 0xbcd596d7, 0xbd0f5c2f, 0xbdb589e9, 0xbceb990f, 0x3bb5bace, 0xbd96a985, 0xbdbdb700, 0xbde3bad6, 0xbe20ad96, 0xbe0030c6, 0xbe11dbfd, 0xbdaad727, 0xbd2c14e8, 0xbb7c9e78, 0x3ae3aca7, 0x3be8f2ca, 0x3d28c6af, 0x3d4c07b4, 0xbd506698, 0xbcff54da, 0xbdb1e5a0, 0xbc2a687d, 0xbdcfed8e, 0xbca7e97c, 0xbd9c3535, 0xbcee5127, 0xbe0c6cca, 0xbe0faae8, 0xbe22be65, 0xbd8810ad, 0xbde5ca31, 0xbcd8f7ac, 0xbdbec4d8, 0xbd398e55, 0xbc55a4db, 0xbc03b11e, 0xbd828f5b, 0xbd4101f1, 0xbcabf7ff, 0xbe1c0f97, 0xbe046728, 0xbe09a0da, 0xbcb749ac, 0xbe52a2eb, 0xbc8340a0, 0xbd4f5769, 0xbe1f1929, 0xbb3b1a34, 0xbe0e4955, 0xbd386f47, 0xbdd3a08d, 0xbd8ab7c6, 0xbd4d0bd2, 0xbdc921b2, 0xbdb9acda, 0xbd326692, 0xbcae6505, 0x3c13e7e9, 0xbd1fdc16, 0xbd8fec05, 0xbc9d0cb6, 0xbd96c5a6, 0xbde3abf2, 0xbdd8ee27, 0xbdb88591, 0xbd0954ff, 0xbccc1e01, 0xbda43c0b, 0xbd286aff, 0xbd694937, 0x3c173e2c, 0xbdc05347, 0xbe30a920, 0xbda53592, 0xbe053581, 0xbd06df79, 0xbcca8f13, 0xbcad06cf, 0xbd998494, 0xbdece5e5, 0xbd4a67bb, 0xbdea3a4a, 0xbd99328f, 0xbd56b58e, 0xbdc4b18c, 0xbd2b853f, 0xbe08121c, 0xbe113fa6, 0xbd60e582, 0xbc99f3eb, 0xbe02838e, 0xbd167bdc, 0xbdfc37a2, 0x3c53024b, 0x3cf9239d, 0xbe0fd551, 0xbd938554, 0xbdb4ca11, 0xbd1056e9, 0xbd9ac53a, 0xbe32e389, 0xbdc41c79, 0xbda070f6, 0xbca01dae, 0x3a88fda1, 0xbd4fa904, 0xbc0f5907, 0xbd9a478e, 0xbd6a77db, 0xbc4b6367, 0xbda1e96d, 0xbdd39772, 0xbcf0f8a1, 0xbd68f761, 0x3d2bacc4, 0x3d4489da, 0x3daf20e8, 0xbd6c64f9, 0xbd0fc74f, 0x3d5ecb0a, 0xbc89efcb, 0xbd0f0c1f, 0xbd90a9cc, 0x3c5e27d8, 0xbd059a28, 0xbd158943, 0x3d2b3697, 0x3cd0568e, 0x3dcd956a, 0x3e1460ce, 0x3dc5d718, 0x3d9c5e93, 0x3da8cce8, 0xbc359450, 0x3e1ec7df, 0x3d2cc00c, 0x3e1f765c, 0x3d789488, 0x3dba5dff, 0x3dd5d6d7, 0x3d89b5a7, 0x3e080d31, 0x3dfa9b70, 0xbd4409b9, 0xbe8b3e35, 0xbe66ebcb, 0xbe18d854, 0xbe151bd6, 0xbe6d28bd, 0xbe8a2cd5, 0xbe22344c, 0x3d0e6d79, 0x3dc8aeff, 0x3e12fdd4, 0x3e300ee3, 0x3e1f23b0, 0x3c6ae2ae, 0x3a6d00ab, 0x3bfad1cc, 0xbb9dfa53, 0x3d9109a8, 0x3e1584fa, 0x3dfc19a3, 0x3e233e0c, 0x3e34e865, 0x3e28f51a, 0x3e5d7f55, 0xbb2bdcda, 0x3cfdaedd, 0x3da11c31, 0x3de58da5, 0xbd87ee78, 0x3d32ae8b, 0x3d04c8f8, 0x3dba3c17, 0xbd156a0f, 0xbc87b26f, 0xbdaab80d, 0xbb8bfc3a, 0xbd13e5e9, 0xbc05d1a4, 0xbd132825, 0x3b895b8a, 0x3e1d794c, 0x3e2b562b, 0x3d2e34a1, 0x3e01580c, 0x3e191566, 0x3d99884c, 0x3dbd8903, 0x3d9ace90, 0x3dea514e, 0x3dd850f9, 0x3e302de7, 0x3e093e7d, 0x3db04aa8, 0x3db5bebe, 0x3db6a1bf, 0x3df009c2, 0x3d8071fb, 0x3df7e5e7, 0x3d9236e4, 0xbc82edaf, 0x3e47ea48, 0x3df64521, 0x3dea6aef, 0x3d9c1f67, 0x3d3370a2, 0x3db90d9d, 0x3ddf0757, 0x3c1123cb, 0x3e43f368, 0x3e3860f3, 0x3d520d11, 0x3e40370a, 0x3e1efd49, 0x3d69c47e, 0x3cc08afe, 0x3d55c210, 0x3c223c38, 0x3ce4bb5e, 0x3d44ca82, 0x3e284a45, 0x3de1ec13, 0x3da3116a, 0x3e00201c, 0x3dfe4071, 0x3e19f3db, 0x3e5439c8, 0x3e4a7117, 0x3e1f3155, 0x3e06eb10, 0x3d7f94f2, 0x3db23121, 0x3e24bcf0, 0x3e005429, 0x3e004431, 0x3d8dd5db, 0x3d27dacc, 0xbcd5c9a7, 0xbdaec309, 0x3c976a1e, 0x3c9d1369, 0x3d5195bd, 0x3da7cb79, 0xbbc0d9a9, 0x3d8a05b8, 0xbd17425c, 0xbe35d712, 0xbdd523ad, 0xbd69e92c, 0xbe0f07e0, 0xbd53b267, 0xbb840f61, 0xbe42130b, 0x3c901b70, 0xbd53cf6a, 0xbd06a890, 0xbcf5a047, 0xbd5867f4, 0xbcb8830b, 0xbd8bef53, 0x3c0a9a4f, 0x3db91d51, 0xbd0ecf92, 0x3c7db302, 0x3d1bdb39, 0x3d1bba61, 0x3e0559ff, 0x3e0fa4e5, 0x3d014ca8, 0xbd6f3f46, 0x3c9c045b, 0x3dcc575d, 0xbda919ab, 0xbdec0e66, 0xbd0eb452, 0xbda2480f, 0x3d45825f, 0x3df824a6, 0x3e1c0e71, 0xbd31476b, 0x3d14cda5, 0x3d9407af, 0x3c6da959, 0x3cfd7655, 0x3e404c83, 0x3e260b09, 0x3d64e812, 0x3dd8a65e, 0x3d9a93e4, 0x3e2cd4d2, 0x3e228a32, 0x3da8e3cc, 0x3e069571, 0x3e2134b6, 0xbd83229f, 0x3ddff655, 0x3db67447, 0x3df2952e, 0xbc27c703, 0x3d90766d, 0x3dcc19f3, 0xbb15a31f, 0x3e53441d, 0x3c95e442, 0x3e07f266, 0x3dd6ce41, 0x3d85ab25, 0xbb650c35, 0x3e059f99, 0x3e1a3385, 0x3dd77834, 0xbbb50ff4, 0x3e42698c, 0x3e3c649c, 0x3d448813, 0x3db88863, 0x3dcadd37, 0x3b2b81b3, 0x3db62b16, 0xbb62551d, 0xbdc0d9ac, 0xbb575ef9, 0x3d908c82, 0xbda0bafb, 0xbcb8a1b8, 0x3de182f4, 0x3d570ad4, 0x3e30aa43, 0xbb8e8190, 0x3e0b7177, 0x3dddb597, 0x3e122172, 0x3d48c4bb, 0xbd230137, 0x3d4e8588, 0x3dc7835e, 0x3dd33a53, 0x3d04e016, 0x3d449d61, 0x3d5de7b6, 0x3dcd2310, 0x3d01698d, 0x3d0b45eb, 0xbda514d4, 0x3dd0ff3b, 0xbd9059cb, 0x3e104f37, 0x3de7c1de, 0x3d65a3ee, 0x3de0c768, 0x3e871562, 0x3dfe535e, 0x3e5175e2, 0x3e0ae49c, 0x3e593953, 0x3de37573, 0x3e21e3c4, 0x3b0899cd, 0xbcdd4fa8, 0x3d485530, 0xbd875af2, 0x3d91cd77, 0xbd3fa4c9, 0x3d8288b9, 0xbd2f9de0, 0xbe0c0080, 0xbddeddaa, 0xbe04b5e2, 0xbe095c4f, 0xbcc781f8, 0xbe31bab8, 0xbdf1bcce, 0xbdf6e800, 0x3d4324f9, 0xbdd69f1b, 0x3b99f186, 0xbe0fd0cc, 0xbdbd0797, 0xbdf29a6f, 0x3d6eae17, 0x3e0e6f9e, 0xbdd62aad, 0xbd8ed0db, 0xbdb7f9fa, 0xbe1bc750, 0xbd71a8bc, 0xbcc7fb7b, 0xbdec272c, 0xbe4063cd, 0xbdbb1b87, 0xbd916edc, 0xbd2e3465, 0xbcb1a79e, 0x3d4aaec7, 0xb95c31d6, 0x3d1efdb6, 0xbdba3609, 0x3e1ce2a6, 0x3e94d71f, 0x3e586996, 0x3e83a608, 0x3e8a638b, 0x3e62788e, 0x3e8aacb3, 0x3e7a31b3, 0x3d742dd8, 0xbc2fed92, 0x3d1559fe, 0xbdac1205, 0xbdb29b70, 0xbd30dbbe, 0x3d54bc61, 0x3c32fac9, 0x3c8a39de, 0x3df35eae, 0xbbdecee3, 0x3db3f8b0, 0x3c1eee6f, 0x3dd25980, 0x3d251d19, 0x3d1d86ed, 0x3d49018f, 0x3d392afe, 0x3e55dc74, 0x3dbc6c0e, 0x3d103f83, 0x3d109246, 0x3e0bb52e, 0x3db237b7, 0x3d8712c7, 0x3d756bf4, 0x3e4a22bf, 0x3de94004, 0x3d958ae9, 0x3e05e1c2, 0x3ddbcbe8, 0x3d520517, 0xbda3bf11, 0xbda96c83, 0xbc8afbe6, 0xbda87920, 0x3ce64eb9, 0xbce8e1e7, 0xbc5a2539, 0x3da7f189, 0xbb2eb0b9, 0x3bfcb47c, 0x3bb5ea3d, 0xbddce62f, 0xbce24662, 0xbd28072c, 0xbdba27f7, 0xbd6417f1, 0xbcd0e1d7, 0x3da00063, 0xbd0a772b, 0xbd4d52e6, 0xbaa1d8af, 0xbd4e517d, 0x3cd47d71, 0xbd703530, 0xbd2c0b72, 0xbd7c4714, 0xbe06b124, 0xbd873c76, 0xbd88af27, 0xbdc3717c, 0xbdbc924c, 0xbe2bb31b, 0xbaf818d7, 0xbd359d00, 0xbd8b855c, 0x3d38a219, 0xbd77e0a9, 0xbd70a36f, 0x3d11929c, 0xbe36b59d, 0x3a56afc9, 0x3d6a2e5b, 0x3d187adc, 0xbd867eaf, 0x3d48db3e, 0x3b2076de, 0x3bad17f5, 0xbd04b6f9, 0x3d66c316, 0x3c6879f4, 0xbd1b1dcc, 0xbe0f7fa1, 0x3d66be0d, 0x3cc36e36, 0xbda32eaa, 0xbdb75d7a, 0xbe0182ee, 0xbe1ea4df, 0xbe528ea3, 0xbe1f8502, 0xbc25272f, 0xbe0f50d8, 0x3c90a8f6, 0xbe3accdf, 0x3e2ae6d8, 0x3e329e58, 0x3e05b4a6, 0x3e41f6e4, 0x3e3ec3a7, 0x3e299038, 0x3e827583, 0x3e58a6e3, 0x3d4020c6, 0x3d03266e, 0x3d875c94, 0x3c830e16, 0x3d83adda, 0x3da28733, 0x3df07a86, 0x3dd98f5c, 0x3d98d433, 0x3e2588a2, 0xbc992745, 0x3df32edb, 0x3def53cf, 0x3e04e7a0, 0x3de542f1, 0x3cb30a58, 0xbe5491dd, 0xbe41dad3, 0xbe7681e6, 0xbe90b6ce, 0xbe4309ab, 0xbe60b7e7, 0xbe5b474f, 0xbe1fc266, 0x3d1e2548, 0x3da87521, 0x3a889934, 0x3e428dd4, 0x3e11cc2d, 0x3dd1151f, 0x3dfa61e6, 0x3d844b83, 0xbbfc1f93, 0x3d6228f7, 0x3cc378bf, 0x3dd2115e, 0x3e0f416f, 0x3de55bf1, 0x3e082fed, 0x3db3f961, 0x3dbc8a12, 0x3dc57756, 0x3db54bc7, 0x3cd9bab3, 0xbbb408a7, 0x3ddb7cd2, 0x3d0c500b, 0xbc196bb1, 0x3bec6724, 0xbcc2a16d, 0xbe0845fc, 0xbd82ca48, 0xbd9ac9bb, 0x3c011e0c, 0xbe0db650, 0xbb043abd, 0x3e0ca966, 0x3e032589, 0x3e29c14e, 0x3d3cbfbe, 0x3e23157b, 0x3e100d24, 0xbb6e6c9e, 0x3e0d162e, 0x3e0d00bd, 0x3b68a487, 0xbb750c99, 0x3da364ce, 0x3bfe4a70, 0x3d5f1e92, 0x3d9c8d98, 0xbc1102e6, 0x3db1cc83, 0x3df7e9f2, 0x3e143b76, 0x3c14b7aa, 0x3e677570, 0x3d4411d8, 0x3d1f76b3, 0x3d971667, 0x3d86ad2a, 0x3e3f45d7, 0x3d6f9dab, 0x3c94100f, 0x3d4cd0d4, 0x3dd933ec, 0x3dbd3a21, 0x3e748992, 0x3e31be9c, 0x3e268aa5, 0x3e0129fb, 0x3db695ea, 0x3b592926, 0x3e06463f, 0x3c5180fa, 0x3d784f4e, 0x3e1ee2a6, 0x3e2b8031, 0x3e31d991, 0x3dfb9c23, 0x3e3d2204, 0x3e09a803, 0x3e5d50f5, 0x3e2a491c, 0x3de18ddb, 0x3db92a43, 0x3d40fc45, 0x3d680eb8, 0x3d965716, 0xbcc9e7d7, 0x3c74546d, 0x3e0bed44, 0xbcd44d12, 0x3d11f72e, 0x3c321844, 0xbc8c40b6, 0x3b9d6572, 0x3d021e72, 0x3d84eb37, 0xbd80cee7, 0xbd664fdb, 0xbe2f39ab, 0xbccfd20b, 0xbd8e27a9, 0xbe1cc4b8, 0xbe17a9a3, 0xbd6dd561, 0xbe62d4ba, 0xbdd5ca2f, 0xbe032eb1, 0xbdbe8b29, 0x3cebe2c7, 0xbda0e33f, 0xbd3bcfdc, 0x3c597f31, 0xbda201ca, 0xbbc93fbf, 0xbd7edfc7, 0xbdea2219, 0xbe12c6ae, 0xbdb679a3, 0xbc947df2, 0xbd5a79cb, 0xbdd37c4e, 0xbd48a429, 0xbcd552d7, 0xbc1fffd5, 0x3d88c7bc, 0xbd610ac0, 0xbd749e51, 0xbcda9a5c, 0xbd38e7a2, 0xbd8463bc, 0x3b86b06a, 0xbc94a67f, 0xbdf8bc41, 0xbd9cca26, 0xbd8f5331, 0xbdeb63c8, 0xbdbb2062, 0xbd522628, 0xbd17a693, 0xbdd9cd86, 0xbd252310, 0xbdb3a3a6, 0xbe445cd9, 0xbd1c3c18, 0xbc90459d, 0xbda6768f, 0x3b8ae200, 0xbe1241b3, 0xbd5e58f5, 0xbe033bd3, 0xbd04a4df, 0xbe2112d5, 0xbe2d0132, 0xbd3deb00, 0xbe008aa6, 0xbd8861d0, 0xbe0827d3, 0xbdfbd5e5, 0xbe11b04f, 0xbe1d5935, 0xbe1d9b55, 0xbd54b525, 0xbdaa934d, 0xbe12ecd5, 0xbc8c99ff, 0xbd9481ac, 0xbd878b20, 0xbc8b3627, 0xbe120107, 0x3cb1acad, 0xbd933a11, 0xbd069d8a, 0xbdbdbcd9, 0xbca20c45, 0xbc977151, 0x3d01669f, 0x3c161e4f, 0xbe17746b, 0xbcefea6e, 0xbcfd822a, 0xbd8bf996, 0xbc9c497b, 0xbe0d59e1, 0xbe0582e3, 0xbe310845, 0xbd58fe63, 0xbd34b622, 0xbdd93d07, 0x3d13f1a3, 0xbdd96f2f, 0x3c4888ee, 0x3d0a2ac8, 0x3cc19fdb, 0xbdef52f8, 0xbdf7d5d3, 0x3c2f9d25, 0xbd0f0750, 0xbd859331, 0xbce3b6a1, 0xbd86f17b, 0xbc93b20c, 0xbe1f9aa9, 0xbe2b0cfe, 0xbe2e9d6e, 0xbcf6a37d, 0xbe4b6c82, 0xbe0e080f, 0xbe041192, 0xbd22bfb8, 0xbd98a71f, 0xbde11270, 0xbc6fc805, 0xbe14345b, 0xbde7b5fe, 0xbd5d7019, 0xbe12b05b, 0xbd9fe727, 0xbdeb525c, 0xbd18535a, 0x3cb62dd5, 0xbcdefaac, 0xbcae7d2a, 0xbdbe41f8, 0xbda3a97e, 0xbd0a43b5, 0xbd8562dd, 0xbcc15351, 0xbd8c315d, 0xbd2b4436, 0xbd3881fd, 0x3c55de47, 0x3c0fe45d, 0xbc798b37, 0xbc11c64a, 0xbdc16d03, 0x3d385fe5, 0xbd9794da, 0xbde2ac7e, 0xbc9bf041, 0xbd986f25, 0x3cca3fb7, 0xbddc2a38, 0xbd2145b5, 0xbe070204, 0xbdec2d7b, 0xbde5b956, 0xbde0fb8f, 0xbdbcfcdd, 0xbe00aa75, 0x3ce352d5, 0x3ca1b73a, 0x3a95912c, 0xbd16db5c, 0xbda79162, 0x3a61a51e, 0x3d163b75, 0x3c533495, 0xbddcf30b, 0xbcb4526c, 0xbd5c4629, 0xbe200e25, 0xbb96f7f1, 0xbd0fe96e, 0xbe10bab6, 0xbd43dadd, 0xbd88177e, 0xbdf379f3, 0xbe20bd49, 0xbe0cfbd8, 0xbdaffffd, 0xbd7bc48d, 0xbb7ff5a2, 0xbe2df6d9, 0xbc5af2d3, 0xbdfa23b0, 0xbd36acf2, 0xbd491e3b, 0xbe44d665, 0xbe378cfc, 0xbdf30b90, 0xbe20d81d, 0xbe15cd19, 0xbd1417f5, 0xbdf82ebb, 0xbd728300, 0xbcb3bce4, 0xbd93be92, 0xbe011963, 0xbda278ad, 0xbd8f3b48, 0xbe175e8c, 0xbe062e23, 0xbd718f37, 0xbc9dbf98, 0xbd19ab84, 0xbe27dd7e, 0xbe135fa4, 0xbd23ab71, 0x3c40a7ca, 0x3c95f253, 0xbd859de2, 0xbbea7150, 0xbd5c7b28, 0xbdc00a65, 0xbc84df4a, 0xbaf0da97, 0xbbe4ebee, 0xbdd1368c, 0xbd743c93, 0xbdc9d883, 0xbe36ac3d, 0xbdce8eff, 0xbe02174c, 0xbdd50155, 0xbb9bcd97, 0xbd2d61dc, 0xbd6c32fa, 0xbd158da5, 0xbd44bcd5, 0x3d0b26ad, 0xbd30d381, 0xbcc973c6, 0xbd9c0fc3, 0xbd8b6b26, 0xbd47579e, 0xbe09d921, 0xbd86ccbf, 0xbe057f3f, 0x3d5bf8c1, 0xbe2385fb, 0xbdee39ee, 0xbcbe776d, 0x3c79f67e, 0xbe36622a, 0xbdd0b61f, 0xbd448360, 0xbe4cd1c7, 0xbd99f63d, 0xbdd97b92, 0xbce85ad6, 0xbda9dd29, 0xbe243f88, 0xbe0964b1, 0x3c062b03, 0xbdb922ea, 0xbbe7106e, 0x3d09b764, 0xbd2b59c8, 0x3bb4376f, 0xbdfab777, 0x3d11389b, 0xbde8984d, 0x3cf1bc4b, 0xbd5245da, 0x3bad4a81, 0x3d1d3284, 0x3c1d33e6, 0x3d47d42a, 0xbc8b7a16, 0xbdb9c914, 0xbdb09222, 0xbe182606, 0xbd925bb4, 0xbda14061, 0xbddbc969, 0xbd4c05e4, 0x3b994af8, 0xbdfc73c5, 0xbe436b8b, 0xbd1fc73c, 0x3b4e72f6, 0x3de372ec, 0x3d3ef89e, 0x3bb2f518, 0xbd97cf46, 0xbc40896b, 0x3d5db032, 0x3df62e9f, 0x3e4904f1, 0x3e5815e6, 0x3e47798b, 0x3dc72c10, 0x3dbfc7f5, 0x3e3cb71f, 0x3e67110d, 0xbd32c143, 0xbdd93132, 0x3d0679d4, 0xbd6e6044, 0xbdc5efd1, 0x3d98f41b, 0xbd76cdd9, 0xbbd91727, 0x3e11111d, 0x3da0b5df, 0xbb7fd037, 0x3d3ec18e, 0x3da035a0, 0x3da14148, 0x3d9dc4e7, 0x3d82d0f2, 0x3db2ae93, 0x3dbbf2fe, 0x3d9a5ab2, 0x3e48833a, 0x3e1f217b, 0x3e0bf60b, 0x3e1e9381, 0x3db2b5dd, 0x3e556ead, 0x3e570983, 0x3e61d15e, 0x3e060f7f, 0x3df5f052, 0x3de13dea, 0x3e5d610c, 0x3e7357f8, 0xbd9831a5, 0x3c04964d, 0x3d7ee481, 0xbd34f0b2, 0x3d61a30e, 0x3d146688, 0x3d242b23, 0x3cad4413, 0xbdbca017, 0xbccc8a4e, 0xbdd87c6e, 0xbdc20e70, 0xbd1df43d, 0xbd9b9ad8, 0xbbe5d6f0, 0xbda897d4, 0xbce43b71, 0xbd39e1d1, 0x3c049ce7, 0x3d8568e1, 0x3d678d9e, 0xbd3f61b3, 0xbcf46a52, 0x3d867ee2, 0xbe0c2413, 0x3c57f1c8, 0x3cc1080f, 0xbd3588b0, 0xbdec983e, 0x3d0a7acf, 0x3d174dbc, 0xbde11c47, 0x3d34b67a, 0xbe073a45, 0xbd9fc4eb, 0x3d28a943, 0xbc6fc876, 0xbd86e414, 0x3d464b88, 0xbe0d444a, 0x3d4ddef2, 0x3d07d4aa, 0x3dab0950, 0xba18b7df, 0x3da5d491, 0xbce79575, 0xbd03ffaf, 0xbc467a70, 0x3d9a6d10, 0xbdb079de, 0x3d0e920e, 0xbdc12e2c, 0xbcce7252, 0xbd553097, 0xbd8abd12, 0xbda8869e, 0xbddde078, 0xbd527dcc, 0xbe1c3a62, 0xbdbd219c, 0xbe0e1378, 0xbd3c2327, 0xbdaad1df, 0xbe2d2859, 0x3e4c2cbb, 0x3e06598f, 0x3de72ab0, 0x3e365eaa, 0x3e39965a, 0x3e223ef6, 0x3dbc3523, 0x3e481121, 0x3d1f085a, 0xbdcf5aa9, 0x3d204641, 0xbde44f80, 0xbd832158, 0x3d14c6ee, 0x3b8fb547, 0xbdeb82cb, 0xbcf078e7, 0xbd429bda, 0xbd6a8f4e, 0xbda57ce4, 0xbe1cc8f0, 0xbe2cd62f, 0xbcaad8ec, 0xbbc6e9ef, 0xbcf803e0, 0xbd5717c9, 0x3d697250, 0xbcfc33f7, 0xbca68d8e, 0xbdb8c05b, 0x3cf8ebbc, 0xbdae89c4, 0xbc989172, 0xbddab8e0, 0x3d2c041f, 0xbe1ca692, 0xbe140894, 0xbe1b3a9b, 0xbdb5362c, 0xbe1ffcd0, 0xbdb961f7, 0xbe220812, 0xbe26c55d, 0xbe302a8e, 0xbc913cc6, 0xbdb92940, 0xbcfe3e91, 0xbe204398, 0xbe2d7377, 0xbdcf6fb3, 0xbe2efa22, 0xbd676fd5, 0xbe134bb9, 0xbd1f1ba0, 0xbd87b132, 0xbdb15bae, 0xbe39daea, 0xbe42fc9f, 0xbcea98fb, 0xbdc4e63a, 0xbdac997c, 0xbcc415dc, 0xbcaab267, 0xbe088e65, 0xbddb5571, 0xbd84240f, 0xbd183eea, 0xbe2d5292, 0xbcd48973, 0xbe0ee3ed, 0xbdc72bab, 0xbe065315, 0xbd99954a, 0xbd6bc276, 0xbdb00712, 0xbddc772e, 0xbd500290, 0xbdddb69a, 0xbd9f0a86, 0xbcd6d422, 0xbd9e212e, 0xbde8ee3d, 0xbd9a3a8b, 0xbe09bc43, 0xbe264fd7, 0xbca88f40, 0xbd80755b, 0xbe3f31f5, 0xbd93813a, 0xbe0c2e30, 0xbd36c1d9, 0xba81772b, 0xbc37dae4, 0xbde4ac15, 0xbd3faa3b, 0x3d0e5cb5, 0xbccb6e8c, 0xbded834c, 0xbdddec49, 0xbcad6f4b, 0x3cabadb3, 0xbd36b587, 0xbdff3c88, 0xbd8d078f, 0xbd90eda9, 0xbd94c5b9, 0xbe087735, 0x3c3edf68, 0xbd00eeb4, 0xbd31cda0, 0xbd1c88e7, 0xbe01817b, 0xbc635231, 0xbdc0539a, 0xbe12e070, 0xbdd919e8, 0xbc902a4b, 0xbd8d2d01, 0xbe0253e0, 0xbdbf3343, 0xbcf5a4bb, 0x3d73a21a, 0xbdaa664d, 0xbc2f2d8f, 0xbd8ac58f, 0xbd386695, 0xbde1fc89, 0xbdc10257, 0xbc25b9fd, 0x3cbf3018, 0xbc242955, 0xbddb5006, 0xb9cf06d3, 0xbd570603, 0xbd083e49, 0x3cddb53a, 0x3d90d7e0, 0x3d3d6e84, 0x3c4e4732, 0x3d447072, 0x3dc7d762, 0x3cbc7ccb, 0x3d8972fa, 0x3d11e0fb, 0x3de7a0c5, 0x3de97226, 0x3da191ad, 0x3db91882, 0x3dc00692, 0x3d694ceb, 0x3e03b574, 0x3e14b36e, 0xbdce0c38, 0xbdb4ffe8, 0xbd42940a, 0xbe1a4d53, 0xbe24d7c7, 0xbe1446ce, 0xbdf5b000, 0xbdb3117e, 0x3d32c285, 0x3db6215b, 0x3e0d9515, 0x3e385fb3, 0x3dedbf93, 0x3d6e8252, 0x3dca8d0d, 0x3bc9513a, 0x3dec439e, 0x3e184a17, 0x3dfae12a, 0x3d17a8ac, 0x3d670ec6, 0x3db677b1, 0x3c36f42c, 0x3d6032b6, 0x3d929f2f, 0xbd7b8fd7, 0xbda58c1a, 0x3d849094, 0x3b032872, 0x3c203292, 0xbc8bf92f, 0x3c8c1927, 0xbd84e597, 0xbd6a187a, 0xbdf1148e, 0x3bb7124d, 0xbbd62dc3, 0xbd845255, 0xbdce637f, 0xbd221285, 0x3db8fee9, 0x3d594cf5, 0x3df1742c, 0x3d20bd29, 0x3c864e69, 0x3c40d9b7, 0x3df21687, 0x3dde2f8a, 0x3c8a29af, 0x3cb16431, 0x3e078818, 0x3cb388f9, 0xbcb6197c, 0x3db06e80, 0x3c3435d5, 0x3d9dade1, 0x3db94ba8, 0x3e0ae814, 0x3dc3001b, 0x3cbab6ea, 0x3e24c6e5, 0x3e0e9c50, 0x3e06b70a, 0x3d2fd85f, 0x3e32c227, 0x3e397913, 0x3e06c703, 0x3daa60ae, 0x3e44bd47, 0x3db1a337, 0x3d8f8c3c, 0x3e037b70, 0x3de2d2fb, 0x3e1de98a, 0x3db80a57, 0x3db9707f, 0x3e116f42, 0xbb1646eb, 0x3dc3138c, 0x3dfd6a55, 0x3e117e1a, 0x3d01db86, 0x3e01ab25, 0x3d3ce5e5, 0x3dcf86b1, 0x3de2eca3, 0x3d5f36ab, 0x3e0682e8, 0x3bad154d, 0x3cbe7217, 0xba81e0db, 0x3d0cc618, 0x3d007a84, 0x3da573e6, 0x3c5b4f8f, 0x3c8934d6, 0xbd092c67, 0xbc877b7a, 0x3c097813, 0x3dc46b4d, 0xbd2ecf8f, 0x3dadf78a, 0x3dc0095a, 0xbd062b2d, 0xbd331503, 0xbdee3097, 0xbcad8dbe, 0x3c0472ac, 0xbc6e58ef, 0xbcf9108c, 0xbd6b4ec1, 0xbe3fa118, 0xbde0539c, 0xbd680f7d, 0xbd89ddf0, 0xbe10d9a9, 0xbe1397fb, 0xbe162848, 0x3c8949f8, 0xbe25cde2, 0xbc29d8a2, 0xbdbd66fa, 0x3db8eb99, 0xbd87c70b, 0xbd3f4f04, 0xbd2b0460, 0x3cd2a2ce, 0xbda2d564, 0x3e4f8295, 0x3e3b0764, 0x3e498239, 0x3e550eb7, 0x3e75af18, 0x3e52a023, 0x3e15db7e, 0x3e15df95, 0xbd185c45, 0x38f1ec50, 0xbdbb77fd, 0xbe0c90fd, 0x3cc8329d, 0xbd3c15bc, 0x3ca9e8e0, 0xbc28f0be, 0x3cee4086, 0x3df9fe7c, 0x3d4feb1f, 0x3dc1f40b, 0x3c4ee19c, 0x3d285688, 0x3bb5796f, 0x3ad1c1b9, 0x3ddd336b, 0x3e1e01dc, 0x3de27f24, 0x3d7b1e72, 0x3e00ab2d, 0x3dd2182a, 0x3dd5d4ac, 0x3d962f7c, 0x3de2c06d, 0x3da96f3f, 0x3e49b460, 0x3ddf207c, 0x3d888702, 0x3e88db77, 0x3df5b33f, 0x3e3c8f6f, 0x3cf16356, 0x3d31e4b9, 0x3d278214, 0x3c37e72c, 0xbdbca1ca, 0x3d9f6f1f, 0xbd4b4675, 0x3d4de347, 0xbc4e898d, 0x3d28ec44, 0xbb229fc4, 0xbde2cba6, 0xbe09ab62, 0xbd25d61b, 0x3c09ad63, 0xbdb5e864, 0x3c9a8bd8, 0x3d81bc58, 0xbcd384f3, 0x3d888f71, 0xbd7dd427, 0xbce73c98, 0xbccadf3c, 0xbb5f50e2, 0x3b1a199c, 0xbddb15d2, 0xbc374d65, 0xbd0c47b6, 0xbc713c52, 0xbde77e2a, 0x3d470c0e, 0xbe0fb51a, 0xbd3fc516, 0xbe2c121f, 0xbd54ae38, 0x3d0a7094, 0xbda9c807, 0xbd741925, 0x3c6bd08a, 0xbc0837c2, 0xbd38dfb6, 0x3c2c3e19, 0xbd9ca1aa, 0xbbb45e93, 0x3da75064, 0x3da28249, 0x3d5b2602, 0x3c4f66e3, 0x3b5d6472, 0xbd6aa263, 0xbd014fa7, 0xbd98b03c, 0xbd87ef38, 0xbdb8bd9d, 0xbc2a4c0b, 0x3d5bbbd2, 0xbdd9223b, 0xbd848695, 0xbd087602, 0xbe01cc34, 0xbde5366f, 0xbd8fbbf6, 0xbdc8b050, 0xbcb1f061, 0x3d64a8e1, 0x3e3964d0, 0x3e1687e0, 0x3dafb573, 0x3e40fe96, 0x3d904a9e, 0x3e596430, 0x3d879233, 0xbe148593, 0xbde9033e, 0xbe06383d, 0x3c9bed35, 0x3ca0566d, 0x3b9edf77, 0x3b71c81a, 0xbd85ed30, 0xbcbbc504, 0x3d7826ce, 0x3ccff541, 0x3ad2bfd8, 0x3ac7c8ec, 0xbd3cff23, 0xbcda129f, 0xbc5eeaef, 0x3e4238af, 0x3e1b3ef9, 0x3d2749fa, 0x3d8a9c55, 0x3e3ee02f, 0x3e69618c, 0x3dba5503, 0x3e5d7a43, 0x3c75b49d, 0x3d782b98, 0x3c710389, 0xbc2bff95, 0xbdbed9ad, 0x3d4e808d, 0x3d90bcf7, 0x3dd70854, 0x3d845b07, 0x3d137a93, 0x3da76819, 0x3dcfef41, 0x3e04e4e6, 0x3da97636, 0x3dc7eb86, 0x3d22958c, 0x3d979175, 0x3e3e354a, 0x3dc9bb82, 0x3e38aa16, 0x3e5993c8, 0x3db8f86e, 0x3d915c42, 0x3dd7b9ae, 0x3e2b0d05, 0x3da5634f, 0x3e0ac60f, 0x3e5496a6, 0x3df8ca9b, 0x3db96e5b, 0x3e3573f8, 0x3e054482, 0x3e1e4df6, 0x3d19645b, 0x3e129a81, 0x3d839370, 0xbc8e8e80, 0x3bbe9b33, 0xbcee2f4c, 0x3dab1cb0, 0xbd6a7abd, 0xbdc9eef5, 0x3d180112, 0xb9e83670, 0xbd2e1552, 0xbc8c10a4, 0xbd1907c5, 0xbc89a5ac, 0xbd68b82f, 0x3bb57ef1, 0x3dcb3dbe, 0x3daaa31c, 0x3d52e66a, 0x3d8a39cb, 0x3d8d3160, 0x3d394826, 0x3d5f5973, 0xbd9e2150, 0xbdb6b479, 0xbdb615d1, 0xbdaad0a5, 0xbb363e17, 0x3de6583e, 0xbd176902, 0x3d92309e, 0x3c507d5c, 0x3b374e2a, 0x3cc4b55d, 0x3aaabb90, 0xbd312645, 0xbc8d8677, 0xbcf9f8f9, 0x3dc5b2e2, 0x3e06c6d3, 0x3e1fc606, 0xbd583db5, 0x3db5ce75, 0xba481bf8, 0x3d0f0d46, 0x3b8996f4, 0xbd16e4bd, 0x3d213315, 0x3d120a59, 0x3da098c1, 0x3ce540b2, 0xbd36f3fa, 0xbdaab5ca, 0xbdac495f, 0xbd45b04e, 0xbdc69a9e, 0xbd5d3e6c, 0xbcd9addc, 0xbc85ba6c, 0xbd8dbb43, 0xbdfb50d2, 0xbc8f9688, 0x3e005532, 0x3e27945a, 0x3e16672b, 0x3e657f91, 0x3d31397e, 0x3e6e5b6d, 0x3d82450d, 0x3d609718, 0xbde226cd, 0xbdf25d4e, 0x3d37524f, 0xbd9434d6, 0xbe02902f, 0xbd2b321e, 0xbd98b45f, 0xbd2c39bb, 0xbd057b4b, 0xbe14462f, 0xbd99db33, 0xbd4018ab, 0xbe3a3e3e, 0xbd490b49, 0xbe44ed0a, 0xbcc8febf, 0xbdacadbe, 0xbd938fe4, 0x3d405862, 0xbd73a51e, 0xbdae91ed, 0xbdaba643, 0xbda2d6f8, 0xbd94fde9, 0xbd155a08, 0xbdfcf288, 0x3d210d77, 0xbddb0ccf, 0xbdfe5a9a, 0xbd653ac4, 0xbdc6d424, 0xbdf7a020, 0xbcd1aada, 0xbe0587e9, 0xbd6142ab, 0xbe394044, 0xbdb8d8fe, 0xbe4c888a, 0xbdde58cf, 0xbdc87fec, 0xbe4668ae, 0xbdd940d2, 0xbd5c2a73, 0xbd2f40f0, 0xbdcc7712, 0xbdbaf5bd, 0xbddda800, 0xbdfa5a5b, 0xbd97a3c1, 0xbdade90d, 0xbdb4725f, 0xbdb23be8, 0xbd0713d1, 0xbe324720, 0xbdf9a685, 0xbdad0f2f, 0xbdfa9c4b, 0xbe1a17f8, 0xbd33b9b5, 0xbe140fab, 0xbd688496, 0xbe50d1f3, 0xbe1ea109, 0xbd169cf0, 0xbdade32a, 0xbe073ff4, 0xbdcd6bc1, 0xbc8d9055, 0xbdc28c04, 0xbd072f92, 0xbdaba7f1, 0xbdd3dda1, 0xbc809264, 0xbd46f1b8, 0xbe4603e5, 0xbd3f112a, 0xbd8c2b7d, 0xbe3bd321, 0xbd4667b2, 0xbdd1a1f6, 0xbdd1b505, 0xbda806ac, 0x3c9340fd, 0xbd16cc64, 0xbdcd58a9, 0xbdcb6157, 0xbcc3ce85, 0xbe0185de, 0xbb92d705, 0xbdde2bd9, 0xbd8dbd70, 0xbe0eb718, 0xbdd51440, 0xbdd080f3, 0xbd6e50b2, 0xbe04ce43, 0xbddba32b, 0xbda032c8, 0xbe41419d, 0xbc8d1106, 0xbdb64fcc, 0xbe0a6c39, 0xbde9ca0b, 0xbdf50fb6, 0xbde005f5, 0xbd87ec14, 0xbdbaa308, 0xbdbf52c2, 0xbd3746c0, 0xbdab4e37, 0xbe0b0d3d, 0xbe2284ff, 0xbba6ba91, 0x3caf756a, 0x3c9e37e3, 0xbe0fde80, 0x3d1fd986, 0x3c5ffa48, 0xbd69bcfd, 0xbdf889b8, 0xbd096df6, 0x3c4a014a, 0xbc674048, 0xbd2143d0, 0x3cf3d4f5, 0xbc8ddb65, 0xbd2062d1, 0x3c1ae859, 0x3d649c60, 0x3c961408, 0xbc31ebc7, 0x3d113fa8, 0x3e13eb54, 0x3e02a720, 0xbce3a27a, 0x3dc5e369, 0x3df7fa7e, 0x3dd7f058, 0x3d7abf8a, 0x3df6a8f6, 0x3d9c8555, 0x3d8cdb08, 0x3da54753, 0x3defd416, 0xbe16a0bb, 0xbe8d1d1d, 0xbe6f3028, 0xbe8eacdb, 0xbdccadf8, 0xbe11ef48, 0xbe342327, 0xbe22fcbd, 0x3e1288b7, 0x3d550e52, 0x3d1d3f51, 0x3d4ec1c0, 0x3d656be8, 0x3d96a330, 0x3ddd07b9, 0x3d7a3799, 0xbbc8476f, 0x3d8d6c8a, 0x3d1ad8fc, 0x3e0b2b5f, 0x3dfdeb53, 0x3e09ffa1, 0x3cf84925, 0x3d8eb0b7, 0xbc79b60d, 0x3ca26386, 0xbd25f868, 0xbd7e130c, 0xbdac2007, 0x3add29a4, 0xbdc48f8a, 0x3d33a28d, 0xbd983632, 0xbd5d8737, 0xbcaa3285, 0xbdc873f9, 0x3d0ae9fb, 0xbe23a3d9, 0xbdd4e423, 0x3bcca9eb, 0x3db39565, 0x3e0cb316, 0x3dfb88b6, 0x3dade4af, 0x3e14bb7a, 0x3d2a8739, 0x3d8929ca, 0x3dfab0ad, 0x3d808167, 0x3be9d18a, 0x3e1c979e, 0xbc528757, 0x3db8f66a, 0xbbc633b7, 0xbc8e5c84, 0x3d5283ae, 0x3df32ad3, 0x3db87d82, 0x3cf647e3, 0x3da43ad2, 0x3d899577, 0x3deae08d, 0x3dc516bd, 0x3d6a377f, 0x3d5ee60f, 0x3dfc90a4, 0x3da93d76, 0x3dc8f065, 0x3df2141a, 0x3e188483, 0x3dc366f8, 0x3debd443, 0x3d865d39, 0x3dc8163b, 0x3dcc8915, 0x3c5421f0, 0x3e16a6bb, 0x3e1a157e, 0x3de2f78c, 0x3cc315a0, 0x3e3ea444, 0x3e139f29, 0x3e30542c, 0x3e759241, 0x3e4cea55, 0x3e099ac6, 0x3db7ed8a, 0x3e25356e, 0x3d42071d, 0x3c3f68ff, 0x3dec9437, 0x3d603053, 0xbc112668, 0x3d8f0f52, 0x3ccfb0d8, 0x3dada1af, 0x3deac97c, 0xbd69a255, 0x3ca28903, 0xbd44832b, 0x3cf4b6c1, 0xbd2e1b7b, 0x3d0624eb, 0xbce1e3d1, 0xbdee38e9, 0xbde959fc, 0xbcfef6b9, 0xbdb573e3, 0xbe38b1a4, 0xbd72db93, 0xbddedf08, 0xbdfe4cf5, 0xbdebdd41, 0xbcafc038, 0xbd855f25, 0xbd22568a, 0x3b134d9a, 0xbdf73760, 0xbd260e71, 0x3d2f3800, 0xbd73e69a, 0xbdc8cae2, 0xbd9f5734, 0xbc5d8826, 0xbd74e65a, 0xbd64bf4e, 0xbe078e96, 0xbdb3dc7a, 0x3d747186, 0xbd0ba715, 0xbdacf5b3, 0x3daddfe7, 0xbd99b738, 0x3cda064e, 0xbd5fb538, 0x3af40da6, 0xbdb3bab6, 0xbd93e843, 0xbda1680b, 0xbc10bdc0, 0xbde955db, 0xbe1eab85, 0xbdae97fe, 0xbd349bee, 0xbd1146df, 0xbd5c817b, 0xbc0ce364, 0xbceed53e, 0xbdbda6ad, 0xbe4ed147, 0xbe1c5f0f, 0xbe24b646, 0xbe38740b, 0xbe084e85, 0xbd1f4a32, 0xbd85a988, 0xbe41a5c5, 0xbd7e7db5, 0xbd88beb3, 0xbe1fa09c, 0xbd8fd231, 0xbe3be5d1, 0xbbd05e20, 0x3d0eb76b, 0xbd753681, 0xbd1e96ce, 0xbe1735be, 0xbd881042, 0xbd3cf8bd, 0xbce037b4, 0xbd3b1f52, 0xbd5e84eb, 0xbc08cdd0, 0xbe396c2c, 0xbccce4c7, 0xbd7ec0f9, 0xbd9f1207, 0xbdc2006b, 0xbdad7193, 0xbd644785, 0xbd722630, 0x3c71c8cf, 0xbe04da60, 0x3cbc610d, 0xbd88d209, 0xbd34d51f, 0xbe3dfebe, 0xbdb171ad, 0xbdcbf3d4, 0xbe2cc3c5, 0xbe1f9083, 0xbd834097, 0x3cc4ca7f, 0xbd05c33e, 0xbdd2fe49, 0xbb328333, 0x3d3da912, 0xbc2fd4e3, 0x3d1d035e, 0xbd306914, 0xbc39ef2e, 0xbd3fb23f, 0xbd49de30, 0xbdf1b4e5, 0xbe1e622e, 0xbd1a9626, 0xbe083e1c, 0xbd27abd1, 0xbdfd9edf, 0xbe192c08, 0xbcf070fb, 0xbd054e8b, 0xbe105abe, 0xbdcf8810, 0xbd1bbb38, 0xbd19ce5f, 0xbdd20755, 0xbe16bb91, 0xbcd176d4, 0xbe09abbf, 0xbe024153, 0xbe0f717e, 0xbd32efaf, 0xbcf984ff, 0x3d104ec3, 0x3d34064f, 0xbcbeec9b, 0xbd8247a9, 0xbd598a3e, 0xbd85bcce, 0x3d0694fd, 0x3c131d63, 0xbd853b5d, 0x3c96315c, 0xbd97401a, 0xbd2cbfff, 0x3d074e1f, 0xbda5881f, 0xbde6fb1e, 0x3d44155c, 0xbe05e372, 0x3bf26c86, 0xbd650d48, 0xbdc95bdd, 0xbe1d59a6, 0xbd596420, 0xbe0a7f3b, 0xbd917376, 0xbd6bcc21, 0xbd717540, 0xbe03dcf6, 0xbd1cea6e, 0xbcdb1391, 0xbe2e30dc, 0xbcf3a08b, 0xbdc92065, 0x3ccbc621, 0xbd35a81d, 0xbddffacb, 0xbd950c90, 0xbdeedaec, 0xbd2d7e6a, 0xbdc866d8, 0xbdf5cd48, 0xbdb096d6, 0xbd839c52, 0x3c2fb8a0, 0xbdad78e7, 0xbc7aed50, 0xbd7edefa, 0xbdc1531b, 0xbe13235f, 0xbe248d83, 0xbdad25f0, 0xbde860b0, 0xbe22c6ac, 0xbe0a130d, 0xbd4fa01d, 0xbdd00af9, 0xbd0fe994, 0xbde55e9f, 0xbd1d8a6b, 0xbe0a824a, 0xbe204e9e, 0xbe363e4b, 0xbe06d8a1, 0xbdf64c7b, 0xbe1cf7dc, 0xbdc56b98, 0xbde4c874, 0xbdb9ffe8, 0xbc8a3308, 0xbe24bb4b, 0xbe3fae79, 0xbd59bfc1, 0xbdf22fa7, 0xbe4aa480, 0xbe4b811e, 0xbdf7006e, 0xbe29008d, 0xbe232112, 0xbe146032, 0xbde8b598, 0xbe01f480, 0xbca6a0b1, 0xbd6b3af0, 0xbdeb5bd7, 0xbdbf5e1d, 0xbd5663f2, 0x3af3867b, 0xbdfab989, 0xbdca3477, 0xbd3dcf08, 0xbd9d3c4c, 0xbde8861c, 0xbdcc1052, 0xbe028f74, 0xbdfca4a4, 0xbda6cfa7, 0xbdb44614, 0xbd86a42e, 0xbdf02acc, 0x3c8201a1, 0x3b90c21f, 0xbd0249ae, 0xbe0614a8, 0xbda88a72, 0xbd611991, 0x3cd1af23, 0x3d3c7f48, 0xbde76a4f, 0xbcae2097, 0xbdca2f8a, 0xbcb81635, 0xbdf5eaa1, 0xbdce7f61, 0xbd67d079, 0x3c6c9c52, 0x3961c34f, 0x3b3bf630, 0xbde68886, 0x3d031cff, 0xbcd4c837, 0xbd9b4b02, 0xbe0114ae, 0xbdbb88a8, 0xbc8f808a, 0xbda20ec6, 0xbddd9245, 0xbc47cb99, 0xbcd2a703, 0xbe090548, 0xbde87c4a, 0xbe08ddd3, 0x3b55d0e2, 0xbce4f21d, 0xbdbe80a3, 0xbdcb8fc3, 0xbba72925, 0xbe043f2a, 0xbdd98af4, 0x3d3348d1, 0x3ce11d86, 0xbdb058a8, 0xbd201658, 0xbd846c52, 0xbceec041, 0xbd80dbb9};
const uint32_t NN_Signet_Param_layers_fc1_bias_Size = 16;
const uint32_t NN_Signet_Param_layers_fc1_bias_Data[] = {0xbd04996e, 0x3e60c9f0, 0x3e98bc13, 0x3e402de1, 0x3e8bab32, 0x3cb62edc, 0xbd081708, 0x3d8ece16, 0xbd778b5d, 0x3cf821c0, 0x3e3895ca, 0x3e2ed8c1, 0xbd4e4b80, 0x3e4c8ecc, 0xbce56b47, 0x3c6d0d56};
const uint32_t NN_Signet_Param_layers_fc2_weight_Size = 48;
const uint32_t NN_Signet_Param_layers_fc2_weight_Data[] = {0xbe37f695, 0xbccd77d2, 0x3d956200, 0x3eba94f8, 0x3cd37642, 0xbec3e84d, 0xbe9eccb5, 0x3ed9d089, 0xbeadd8ae, 0xbe71258d, 0x3ecf2f44, 0x3ed11ff1, 0xbde9f2ad, 0xbe8477c2, 0xbe8064e3, 0xbeb65699, 0xbe85946a, 0x3eae850e, 0x3ddbecfe, 0xbe04e5a1, 0x3ee3ec1c, 0xbe8f6b79, 0xbe848232, 0xbed49562, 0xbe8569c5, 0x3ec0b11c, 0xbea15618, 0xbe031746, 0xbd61e5c4, 0x3ed77c33, 0xbe3babdc, 0x3bf605de, 0x3e89922b, 0xbcda013e, 0xbed07ad5, 0x3e40a890, 0xbe036575, 0x3ea648ed, 0x3e931dbe, 0xbe83d883, 0x3e343b4f, 0x3d88a7bf, 0xbccea7f6, 0xbecfaa44, 0x3e9378f5, 0xbe0ca5c6, 0x3ebcd36a, 0x3e9f890e};
const uint32_t NN_Signet_Param_layers_fc2_bias_Size = 3;
const uint32_t NN_Signet_Param_layers_fc2_bias_Data[] = {0x3cd9c52b, 0x3e538deb, 0xbe26a461};
